[PAD]
[UNK]
[CLS]
[SEP]
[MASK]
!
"
#
$
%
&
'
(
)
*
+
,
-
.
/
0
1
2
3
4
5
6
7
8
9
:
;
<
=
>
?
@
A
B
C
D
E
F
G
H
I
J
K
L
M
N
O
P
Q
R
S
T
U
V
W
X
Y
Z
[
\
]
^
_
`
a
b
c
d
e
f
g
h
i
j
k
l
m
n
o
p
q
r
s
t
u
v
w
x
y
z
{
|
}
~
¡
£
¥
§
©
«
®
°
±
²
³
´
µ
¶
·
º
»
½
Á
Ç
É
Ö
×
Ø
Ü
ß
à
á
â
ã
ä
å
æ
ç
è
é
ê
ë
ì
í
î
ï
ð
ñ
ò
ó
ô
ö
÷
ø
ù
ú
ü
ý
ā
ă
ć
Č
č
Đ
đ
ē
ę
ě
ğ
ĩ
ī
İ
ı
ł
ń
ŋ
ō
ŏ
œ
ś
Ş
ş
Š
š
ū
ŭ
ž
ơ
ư
ǎ
ǐ
ǒ
ǔ
ɐ
ɑ
ɔ
ə
ɛ
ɨ
ɪ
ɯ
ɾ
ʃ
ʊ
ʒ
ʔ
ʰ
ʲ
ʻ
ʼ
ˈ
ː
˚
́
̈
̞
͡
Α
Γ
Δ
Ε
Ι
Κ
Λ
Μ
Π
Σ
Τ
Φ
Ω
ά
έ
ή
ί
α
β
γ
δ
ε
ζ
η
θ
ι
κ
λ
μ
ν
ο
π
ρ
ς
σ
τ
υ
φ
χ
ω
ό
ύ
ώ
А
Б
В
Г
Д
Е
Ж
З
И
К
Л
М
Н
О
П
Р
С
Т
У
Ф
Х
Ц
Ч
Ш
Э
Я
а
б
в
г
д
е
ж
з
и
й
к
л
м
н
о
п
р
с
т
у
ф
х
ц
ч
ш
щ
ъ
ы
ь
э
ю
я
ё
і
ү
ө
ա
ն
ր
א
ה
ו
י
ל
ר
أ
ا
ب
ة
ت
ج
ح
خ
د
ر
ز
س
ش
ع
ف
ق
ك
ل
م
ن
ه
و
ى
ي
َ
ی
र
ा
्
்
ก
ค
ง
จ
ช
ด
ต
ท
น
บ
พ
ม
ย
ร
ล
ว
ส
ห
อ
ะ
ั
า
ิ
ี
ุ
เ
็
่
้
་
ა
ი
ᄀ
ᄂ
ᄃ
ᄅ
ᄆ
ᄇ
ᄉ
ᄋ
ᄌ
ᄒ
ᅀ
ᅡ
ᅩ
ᅳ
ᆞ
ᆡ
ᆢ
ᆫ
ᆯ
ᆷ
ᇰ
ᚖ
ᚙ
ạ
ả
ấ
ầ
ậ
ắ
ế
ề
ễ
ệ
ị
ọ
ố
ồ
ộ
ớ
ờ
ợ
ứ
ỹ
‐
–
—
―
‘
’
“
”
†
‡
•
․
‥
…
‧
′
″
›
※
‼
⁉
₩
€
⃣
℃
ℓ
™
⅓
⅔
Ⅰ
Ⅱ
Ⅲ
Ⅳ
Ⅴ
Ⅵ
Ⅶ
Ⅹ
←
↑
→
↓
↔
↖
↗
↘
↙
⇒
∀
−
∙
√
∞
∫
∼
≒
≠
≤
≥
≪
≫
⊙
⋅
⋯
①
②
③
④
⑤
⑥
⑦
⑧
⑨
⑫
⑮
⑲
Ⓐ
ⓐ
ⓒ
ⓝ
─
━
│
└
┗
┣
║
█
░
▒
■
□
▣
▩
▪
▲
△
▶
▷
▼
▽
◀
◆
◇
◈
○
◎
●
◦
◯
◾
☀
★
☆
☎
☑
☘
☝
☞
☠
☢
☣
☭
☹
☺
♀
♂
♠
♡
♣
♤
♥
♦
♧
♨
♪
♬
♭
♯
⚖
⚠
⚡
⛔
✂
✅
✊
✋
✌
✔
✖
✨
✳
✴
❄
❌
❎
❓
❗
❣
❤
➝
➡
⬛
⭐
⭕
、
。
〃
々
〈
〉
《
》
「
」
『
』
【
】
〔
〕
〜
〰
ぁ
あ
ぃ
い
ぅ
う
ぇ
え
ぉ
お
か
が
き
ぎ
く
ぐ
け
げ
こ
ご
さ
ざ
し
じ
す
ず
せ
ぜ
そ
ぞ
た
だ
ち
っ
つ
づ
て
で
と
ど
な
に
ぬ
ね
の
は
ば
ぱ
ひ
び
ぴ
ふ
ぶ
ぷ
へ
べ
ぺ
ほ
ぼ
ぽ
ま
み
む
め
も
ゃ
や
ゅ
ゆ
ょ
よ
ら
り
る
れ
ろ
わ
を
ん
ァ
ア
ィ
イ
ゥ
ウ
ェ
エ
ォ
オ
カ
ガ
キ
ギ
ク
グ
ケ
ゲ
コ
ゴ
サ
ザ
シ
ジ
ス
ズ
セ
ゼ
ソ
ゾ
タ
ダ
チ
ッ
ツ
テ
デ
ト
ド
ナ
ニ
ヌ
ネ
ノ
ハ
バ
パ
ヒ
ビ
ピ
フ
ブ
プ
ヘ
ベ
ペ
ホ
ボ
ポ
マ
ミ
ム
メ
モ
ャ
ヤ
ュ
ユ
ョ
ヨ
ラ
リ
ル
レ
ロ
ワ
ヲ
ン
ヴ
ヶ
・
ー
ㄱ
ㄲ
ㄳ
ㄴ
ㄷ
ㄸ
ㄹ
ㄺ
ㄻ
ㅁ
ㅂ
ㅃ
ㅄ
ㅅ
ㅆ
ㅇ
ㅈ
ㅉ
ㅊ
ㅋ
ㅌ
ㅍ
ㅎ
ㅏ
ㅐ
ㅑ
ㅒ
ㅓ
ㅔ
ㅕ
ㅖ
ㅗ
ㅘ
ㅙ
ㅚ
ㅛ
ㅜ
ㅝ
ㅞ
ㅟ
ㅠ
ㅡ
ㅢ
ㅣ
ㅤ
ㆍ
㈜
㊗
㎍
㎏
㎑
㎒
㎜
㎝
㎞
㎡
㎢
㎥
㎾
㏊
一
丁
七
万
丈
三
上
下
不
与
丑
且
世
丘
丙
东
丞
両
並
个
中
丸
丹
为
主
乃
久
么
义
之
乎
乐
乗
乘
乙
九
乞
也
习
乡
乱
乳
乾
亀
亂
了
予
争
事
二
于
云
互
五
井
些
亜
亞
亡
交
亥
亦
产
亨
享
京
亭
亮
亲
人
什
仁
仇
今
介
从
仏
仕
他
付
仙
代
令
以
们
仮
仰
仲
件
任
企
伊
伏
伐
休
会
伝
伯
伴
伸
似
伽
但
位
低
住
佐
佑
体
何
余
佛
作
你
佳
使
來
例
侍
供
依
侯
侵
便
係
俊
俗
保
俠
信
修
俱
俺
倉
個
倍
倒
候
借
値
倫
倭
假
偉
做
停
健
側
偵
偶
傅
傑
備
催
傳
傷
僉
像
僕
僞
僧
價
儀
億
儉
儒
優
儿
允
元
兄
充
兆
先
光
克
免
兎
児
兒
党
入
內
全
兩
兪
八
公
六
共
关
兴
兵
其
具
典
兼
内
円
冊
再
冒
写
军
冠
冥
冬
冷
准
凉
凛
凡
処
凰
凱
凶
凸
出
函
刀
刃
分
切
刊
刑
划
列
刘
初
判
別
利
别
到
制
券
刹
刺
刻
則
削
前
剛
剣
副
割
創
劇
劉
劍
力
功
加
动
助
努
劫
勅
勇
勉
勒
動
務
勝
勞
勢
勤
勳
勿
包
化
北
匠
匡
区
医
區
十
千
升
午
半
华
协
卑
卒
卓
協
南
博
卜
卞
占
卯
印
危
即
卷
卽
卿
厚
原
去
县
参
參
又
叉
及
友
双
反
収
发
叔
取
受
叢
口
古
句
只
叫
召
可
台
史
右
叶
号
司
吃
各
合
吉
同
名
后
吏
吐
向
吗
君
否
吧
含
听
吳
吸
吹
吾
呂
告
呢
周
呪
味
呼
命
和
咲
咸
哀
品
哈
哉
員
哥
哦
哭
哲
唄
唐
唯
唱
商
啊
問
啓
善
喆
喜
喪
單
嗣
嘉
嘘
器
嚴
四
回
因
团
団
园
図
固
国
國
園
圓
圖
團
土
在
圭
地
场
址
坂
均
坊
坐
坡
坤
坪
垂
型
垣
垮
城
域
執
培
基
堀
堂
堅
堡
堤
堯
報
場
塔
塘
塚
塞
塩
塵
塾
境
墓
増
增
墨
墳
壁
壇
壊
壤
士
壬
壯
声
売
壺
壽
変
夏
夕
外
多
夜
夢
大
天
太
夫
央
失
头
夷
奇
奈
奉
奎
奏
契
奥
奧
奪
奮
女
奴
好
如
妃
妄
妈
妖
妙
妹
妻
姉
始
姐
姑
姓
委
姜
姫
姬
姿
威
娘
婁
婆
婚
婦
媛
嫁
嫌
嫡
嬪
子
孔
字
存
孝
孟
季
孤
学
孫
學
宅
宇
守
安
宋
完
宏
宗
官
宙
定
宜
宝
实
実
客
宣
室
宮
宰
害
宴
家
容
宿
寂
寄
寅
密
寇
富
寒
寛
寝
察
實
寧
審
寫
寬
寶
对
寺
导
対
寿
封
射
将
將
專
尉
尊
尋
對
導
小
少
尔
尙
尚
就
尸
尹
尺
尼
尽
尾
局
居
屈
届
屋
屍
展
属
屠
層
履
屬
屯
山
岐
岛
岡
岩
岳
岸
峯
峰
峴
島
崇
崎
崔
崖
崩
嵐
嶋
嶺
巖
川
州
巡
工
左
巧
巨
巫
差
己
已
巳
巴
巻
市
布
希
帖
帝
帥
師
席
帯
帰
帶
常
帽
幕
幡
干
平
年
并
幸
幹
幻
幼
幽
幾
广
広
庄
床
序
应
底
店
庚
府
度
座
庫
庭
庵
庶
康
庸
廉
廊
廟
廢
廣
廳
延
廷
建
廻
廿
开
弁
式
弓
弔
引
弗
弘
弟
张
弥
弱
張
強
强
弼
弾
彈
彌
当
形
彦
彩
彬
彭
彰
影
役
彼
往
征
待
很
律
後
徐
徒
従
得
從
御
復
微
徳
徵
德
徹
徽
心
必
忌
忍
志
忘
応
忠
快
念
忽
态
怎
怒
怖
思
急
性
怨
怪
恋
恐
恒
恥
恨
恩
恭
息
恵
悔
悟
悠
患
您
悪
悲
情
惑
惟
惠
惡
惱
想
愍
意
愚
愛
感
愼
慈
態
慕
慢
慧
慮
慰
慶
憂
憲
憶
應
懷
懸
懿
戀
戈
戊
戌
戎
成
我
戒
或
战
戦
戰
戱
戴
戶
戸
戻
房
所
扇
手
才
打
扮
扶
找
承
技
抄
把
投
抗
折
抜
报
披
抱
押
拉
拓
拔
招
拜
拳
持
指
按
挑
振
捕
捨
授
掌
排
掛
探
接
推
描
提
揚
換
揮
援
損
摠
摩
撃
撫
播
撰
擇
擊
操
擧
攝
支
收
改
攻
放
政
故
效
敎
敏
救
敗
教
敢
散
敦
敬
数
整
敵
敷
數
文
斉
斎
斗
料
斬
断
斯
新
斷
方
於
施
旅
旋
旌
族
旗
无
日
旦
旧
旨
早
旭
时
旺
昆
昇
昊
昌
明
易
昔
星
映
春
昧
昭
是
時
晃
晉
晋
晩
普
景
晴
晶
智
暁
暗
暮
暴
曆
曇
曉
曜
曰
曲
更
書
曹
曺
曼
曾
最
會
月
有
朋
服
朔
朗
望
朝
期
木
未
末
本
札
朱
朴
机
杀
权
杉
李
杏
材
村
杖
杜
束
条
来
杨
杯
東
松
板
林
果
枝
架
柄
柏
某
染
柔
柱
柳
柴
査
栄
标
栗
校
株
样
核
根
格
桂
桃
案
桐
桑
桓
桜
桥
梁
梅
條
梦
梧
梨
械
梵
棄
棋
棒
森
植
検
楊
楓
楚
業
極
楷
楼
楽
榜
榮
槃
構
槍
様
樂
樓
標
樞
模
樣
権
横
樹
橋
橘
機
橫
檀
檢
權
次
欢
欲
欽
歌
止
正
此
步
武
歩
歲
歳
歴
歷
歸
死
殃
殊
残
段
殷
殺
殿
毁
毅
母
每
毒
比
毘
毛
氏
民
気
氣
水
氷
永
求
汉
汗
汚
汝
江
池
決
沃
沈
沒
沖
沙
没
沢
河
油
治
沼
沿
泉
法
泗
泡
波
泣
泥
注
泰
泳
洋
洗
洙
洛
洞
津
洪
洲
活
派
流
浅
浜
浦
浩
浪
浮
海
涅
消
涙
涼
淑
淡
淨
淫
淮
深
淳
淵
混
淸
清
済
減
渠
渡
渤
温
測
港
游
渾
湖
湘
湯
湾
満
溃
源
準
溝
溪
溫
溶
滅
滝
滿
漁
漆
漏
演
漢
漫
潘
潤
潭
潮
澄
澤
激
濃
濟
濬
瀬
灘
灣
火
灯
灰
災
炎
炭
炯
炳
点
為
烈
烏
焉
無
然
焼
煙
煥
照
煩
熊
熙
熟
熱
燃
燈
燒
燕
營
燦
燮
爆
爪
爭
爱
爲
爵
父
爸
爾
片
版
牌
牙
牛
牟
牧
物
特
犬
犯
状
狀
狂
狐
狗
狩
独
狼
猛
猪
猫
猿
獄
獅
獣
獨
獲
獸
獻
玄
率
玉
王
玩
现
玲
珍
珠
班
現
球
理
琉
琴
瑜
瑞
瑠
璃
環
瓦
甘
甚
生
産
用
甫
田
由
甲
申
电
男
町
画
界
畑
留
畜
略
番
異
畵
當
畿
疏
疑
疾
病
症
痛
癡
癸
発
登
發
白
百
的
皆
皇
皮
益
盗
盛
盜
盟
盡
監
盤
盧
目
直
相
盾
省
眉
看
県
眞
真
眠
眼
眾
着
睡
督
睦
睿
瞋
瞬
瞳
矢
矣
知
短
石
砂
研
砲
破
硏
碑
碧
碩
確
磁
磨
示
礼
社
祀
祈
祐
祖
祚
祝
神
祠
祥
祭
祿
禁
禍
禎
福
禦
禧
禪
禮
禹
秀
私
秉
秋
种
科
秘
租
秦
移
稅
程
種
稱
稲
稷
稿
穀
穂
穆
積
穴
究
空
突
窓
窮
立
站
竜
章
童
端
競
竹
笑
笠
符
第
筆
等
筋
筑
筒
答
策
筵
箕
算
管
箭
箱
節
範
篇
築
篠
簡
簿
籍
米
粉
精
糖
糸
系
紀
約
紅
紋
納
純
紗
紙
級
素
索
紫
細
紹
終
組
絆
経
結
給
統
絲
絵
絶
絹
經
継
続
綠
維
綱
網
綺
綾
綿
総
緑
緒
緖
線
緣
編
練
縛
縣
總
繁
織
繫
繼
纂
續
纏
红
线
经
结
给
维
网
罗
罪
置
罰
署
羅
羊
美
群
義
羽
翁
翊
習
翔
翠
翰
翼
耀
老
考
者
而
耐
耕
耳
耶
聖
聚
聞
聯
聲
職
聽
肅
肉
肖
肥
育
背
胎
胜
胞
胡
胤
胸
能
脇
脈
脚
脫
脱
脳
腐
腕
腦
腹
臣
臨
自
臭
至
致
臺
與
興
舊
舌
舍
舎
舒
舜
舞
舟
航
般
船
艦
良
色
芝
花
芳
芸
芽
苏
苑
苗
若
苦
英
茂
范
茶
草
荊
荒
荷
莉
莊
莫
菅
菊
菜
菩
華
萊
萌
萬
落
葉
著
葛
董
葬
葵
蒙
蒲
蒼
蓋
蓮
蔚
蔡
蔣
蔵
蕃
蕭
薄
薛
薩
薬
薰
藍
藏
藝
藤
藥
藩
蘇
蘊
蘭
虎
處
虚
虛
虞
號
虫
虹
蚊
蛇
蛋
蜀
蜜
蝶
融
螺
蟲
血
衆
行
衍
術
街
衛
衝
衡
衣
表
袁
袋
被
裁
裂
装
裏
裕
補
裝
裵
製
複
襄
襲
西
要
覆
覇
見
規
視
覚
覧
親
観
覺
覽
觀
见
视
角
解
触
觸
言
計
討
訓
記
訪
設
許
訳
訴
註
証
詔
評
詞
試
詩
話
詳
誌
認
誓
誕
誘
語
誠
誤
說
説
読
誰
課
調
談
請
論
諡
諦
諫
諭
諸
謀
謂
謎
謙
講
謝
謹
證
識
譜
警
譯
議
護
讀
變
讓
计
让
记
论
评
话
该
语
说
请
谢
谷
豆
豊
豐
豚
象
豪
豫
貝
貞
負
財
貢
貨
貪
貫
責
貴
買
費
賀
資
賈
賊
賓
賜
賞
賢
賣
賦
質
賴
贈
贊
赞
赤
赫
走
起
超
越
趙
趣
足
跋
跡
路
踊
踏
蹟
身
車
軌
軍
軒
転
軽
載
輔
輕
輝
輩
輪
輸
輿
轉
车
轮
辛
辨
辭
辯
辰
農
辺
辻
込
过
迎
近
返
还
这
进
远
迦
迪
迫
述
迷
追
退
送
逃
逆
透
逐
途
通
速
造
逢
連
週
進
逸
逼
遂
遇
遊
運
遍
過
道
達
違
遠
遣
遥
適
遷
選
遺
遼
避
還
邊
邑
那
邦
邪
邱
郁
郎
郞
郡
部
郭
郵
郷
都
鄉
鄕
鄧
鄭
酉
配
酒
酸
醒
醫
采
釋
里
重
野
量
金
釜
針
鈴
鉄
鉉
鉢
銀
銃
銅
銘
鋼
錄
錢
錦
錫
録
鍊
鍾
鎌
鎔
鎖
鎬
鎭
鎮
鏡
鐘
鐵
鑑
铁
镇
長
长
門
閃
閉
開
閑
間
閔
関
閣
闇
闘
關
门
问
间
阪
阮
防
阳
阿
陀
附
降
限
陛
院
陣
除
陰
陳
陵
陶
陸
険
陽
隆
隊
隋
階
際
障
隠
隣
隨
隱
雀
雄
雅
集
雍
雑
雙
雜
離
難
雨
雪
雲
零
雷
電
需
震
霊
霜
霞
霧
露
靈
靑
青
靖
静
靜
非
面
革
韋
韓
韩
音
韻
響
頁
頂
頃
項
順
須
頌
頑
領
頭
頼
題
額
顔
願
類
顧
顯
顺
领
風
风
飛
食
飯
飾
養
餘
館
首
香
馬
馮
駄
駅
駆
駐
駒
駿
騎
騒
験
驚
驛
驪
马
骨
體
高
髪
鬪
鬼
魂
魏
魔
魚
魯
鮮
鲜
鳥
鳳
鳴
鴻
鶴
鷄
鷹
鹽
鹿
麗
麟
麻
黃
黄
黎
黑
黒
默
點
黨
鼎
鼓
鼻
齊
齋
齒
齡
龍
龙
龜
ꉂ
꙼
가
각
갂
간
갇
갈
갉
감
갑
값
갓
갔
강
갖
갗
갘
같
갚
갛
개
객
갠
갤
갬
갭
갯
갰
갱
갲
갸
갹
갼
걀
걍
걑
걔
걘
걩
거
걱
건
걷
걸
검
겁
겂
것
겄
겅
겆
겈
겉
겊
겋
게
겍
겐
겔
겜
겝
겟
겠
겡
겤
겧
겨
격
겪
견
결
겸
겹
겻
겼
경
곀
곁
계
곈
곗
곘
곙
고
곡
곤
곧
골
곪
곯
곰
곱
곳
공
곶
곷
곸
과
곽
관
괄
괌
광
괘
괜
괞
괭
괴
괵
괸
굇
굉
교
굔
굘
굣
굥
구
국
군
굳
굴
굵
굶
굻
굼
굽
굿
궁
궂
궃
궄
궈
궉
권
궐
궛
궜
궝
궤
궨
궸
궹
귀
귁
귄
귈
귐
귓
규
귝
균
귤
그
극
근
귿
글
긁
긇
금
급
긋
긍
긎
긑
긒
긔
긕
기
긱
긴
긷
길
김
깁
깂
깃
깄
깅
깆
깈
깉
깊
까
깍
깎
깐
깔
깜
깝
깞
깟
깠
깡
깢
깤
깥
깨
깩
깬
깰
깸
깻
깼
깽
꺄
꺅
꺠
꺵
꺼
꺽
꺾
껀
껄
껌
껍
껏
껐
껑
껒
께
껜
껫
껬
껭
껴
껸
꼇
꼈
꼐
꼬
꼭
꼰
꼴
꼼
꼽
꼿
꽁
꽂
꽃
꽅
꽈
꽉
꽊
꽌
꽐
꽝
꽤
꽥
꽹
꾀
꾐
꾜
꾸
꾹
꾼
꾾
꾿
꿀
꿇
꿈
꿉
꿋
꿍
꿎
꿏
꿔
꿘
꿜
꿧
꿨
꿩
꿰
꿱
꿴
뀌
뀐
뀔
뀜
뀝
뀠
뀨
끄
끅
끈
끊
끋
끌
끍
끓
끔
끕
끗
끙
끝
끠
끼
끽
낀
낄
낌
낍
낏
낑
낔
나
낙
낚
난
낟
날
낡
남
납
낫
났
낭
낮
낯
낰
낱
낳
내
낵
낸
낼
냄
냅
냇
냈
냉
냌
냐
냑
냔
냘
냠
냣
냥
냨
냬
너
넉
넋
넌
널
넒
넓
넖
넘
넙
넛
넜
넝
넠
넣
네
넥
넨
넬
넴
넵
넷
넸
넹
넼
녀
녁
년
녈
념
녓
녔
녕
녘
녜
녠
녤
노
녹
논
놀
놈
놉
놋
농
놐
높
놓
놔
놧
놨
놯
놰
뇌
뇐
뇜
뇨
뇬
뇰
뇸
뇽
누
눅
눈
눌
눔
눕
눗
눙
눜
눞
눟
눠
눤
눴
눼
뉘
뉜
뉠
뉨
뉩
뉴
뉸
뉼
늄
늉
느
늑
는
늕
늗
늘
늙
늠
늡
늣
능
늦
늧
늨
늪
늫
늬
니
닉
닌
닏
닐
님
닙
닛
닜
닝
닞
닠
닢
다
닥
닦
단
닫
달
닭
닮
닯
닳
담
답
닶
닷
당
닺
닻
닼
닽
닾
닿
대
댁
댄
댈
댐
댑
댓
댔
댕
댖
댘
댜
댠
댤
댯
댱
댸
더
덕
던
덜
덟
덤
덥
덧
덩
덪
덫
덮
덯
데
덱
덴
델
뎀
뎁
뎃
뎄
뎅
뎈
뎌
뎐
뎠
뎡
뎨
뎬
도
독
돈
돋
돌
돔
돕
돗
동
돚
돛
돝
돟
돠
돡
돤
돨
돴
돼
됀
됄
됌
됍
됏
됐
되
된
될
됨
됩
됫
됬
됭
됴
두
둑
둔
둗
둘
둠
둡
둣
둥
둬
둰
둿
뒀
뒈
뒤
뒬
뒷
뒹
듀
듁
듄
듈
듐
듕
드
득
든
듣
들
듥
듦
듫
듬
듭
듯
등
듲
듵
듷
듸
듼
딋
딍
디
딕
딘
딛
딜
딤
딥
딧
딨
딩
딪
딫
따
딱
딲
딴
딸
딹
땀
땁
땃
땄
땅
땋
때
땍
땐
땔
땜
땝
땟
땠
땡
땨
떄
떈
떔
떙
떠
떡
떢
떤
떨
떫
떰
떱
떳
떴
떵
떻
떼
떽
뗀
뗄
뗌
뗏
뗐
뗑
뗘
뗴
또
똑
똔
똘
똠
똣
똥
똬
똭
뙇
뙈
뙤
뙨
뚕
뚜
뚝
뚠
뚤
뚫
뚯
뚱
뛔
뛰
뛴
뛸
뜀
뜁
뜨
뜩
뜬
뜯
뜰
뜷
뜸
뜹
뜻
뜽
뜾
띁
띄
띈
띌
띔
띕
띠
띡
띤
띨
띱
띵
라
락
란
랃
랄
람
랍
랏
랐
랑
랒
랔
랖
랗
래
랙
랜
랠
램
랩
랫
랬
랭
랰
랳
랴
략
랸
랼
럄
럈
량
럐
러
럭
런
럴
럼
럽
럾
럿
렀
렁
렇
레
렉
렌
렐
렘
렙
렛
렜
렝
렠
렣
려
력
련
렬
렴
렵
렷
렸
령
렿
례
롄
로
록
론
롤
롬
롭
롯
롱
롴
롷
롸
롹
롼
뢀
뢔
뢰
뢴
룀
료
룐
룔
룡
루
룩
룬
룰
룸
룹
룻
룽
뤄
뤈
뤌
뤘
뤠
뤡
뤼
뤽
륀
륄
류
륙
륜
률
륨
륭
르
륵
른
를
름
릅
릇
릉
릎
릏
릐
리
릭
린
릴
림
립
릿
맀
링
맂
맄
맆
맇
마
막
만
맍
많
맏
말
맑
맗
맘
맙
맛
맜
망
맞
맟
맠
맡
맢
맣
매
맥
맨
맬
맴
맵
맷
맸
맹
맺
먀
먄
먈
먕
머
먹
먼
먾
멀
멈
멉
멊
멋
멍
멎
멏
멓
메
멕
멘
멜
멤
멥
멧
멨
멩
며
멱
면
멸
몀
몃
몄
명
몆
몇
몈
몌
몐
모
목
몪
몫
몬
몯
몰
몸
몹
못
몽
몾
몿
뫃
뫄
뫈
뫠
뫼
묀
묄
묏
묘
묙
묜
묠
묫
묭
무
묵
묶
문
묹
묻
물
묽
뭄
뭅
뭇
뭉
뭌
뭍
뭏
뭐
뭔
뭘
뭠
뭡
뭣
뭤
뭥
뭬
뮈
뮌
뮐
뮙
뮛
뮤
뮨
뮬
뮴
뮹
므
믁
믄
믈
믐
믓
믕
믜
미
믹
민
믽
믾
믿
밀
밈
밉
밋
밌
밍
밎
및
밑
바
박
밖
반
받
발
밝
밞
밟
밢
밣
밤
밥
밦
밧
밨
방
밪
밬
밭
배
백
밴
밷
밸
뱀
뱁
뱃
뱄
뱅
뱉
뱌
뱍
뱐
뱔
뱡
버
벅
번
벋
벌
범
법
벗
벙
벚
벛
벞
베
벡
벤
벧
벨
벰
벱
벳
벵
벹
벼
벽
변
별
볌
볍
볏
볐
병
볓
볕
볗
볘
볜
보
복
볶
본
볻
볼
봄
봅
봇
봉
봊
봌
봐
봘
봣
봤
봥
봨
봬
뵈
뵌
뵐
뵘
뵙
뵜
뵤
뵨
뵹
부
북
붂
분
붇
불
붉
붏
붐
붑
붓
붕
붘
붙
붜
붤
붱
붸
뷁
뷔
뷘
뷜
뷩
뷰
뷱
뷴
뷸
븀
븅
브
븍
븐
블
븡
븥
븨
븽
비
빅
빈
빋
빌
빍
빔
빕
빗
빙
빚
빛
빠
빡
빢
빤
빨
빩
빰
빱
빳
빴
빵
빻
빼
빽
뺀
뺃
뺄
뺌
뺍
뺏
뺐
뺑
뺕
뺘
뺠
뺨
뺴
뺵
뻇
뻐
뻑
뻔
뻗
뻘
뻠
뻡
뻣
뻤
뻥
뻬
뻰
뻴
뼈
뼉
뼌
뼘
뼛
뼝
뼤
뽀
뽁
뽂
뽄
뽈
뽐
뽑
뽕
뽜
뽝
뽤
뾰
뿅
뿌
뿍
뿐
뿔
뿜
뿟
뿡
쀼
쁀
쁑
쁘
쁜
쁠
쁨
쁩
삐
삑
삔
삘
삣
삥
사
삭
삯
산
살
삵
삶
삷
삻
삼
삽
삿
샀
상
샄
샅
샆
샇
새
색
샊
샋
샌
샏
샐
샘
샙
샛
샜
생
샠
샡
샣
샤
샥
샨
샬
샴
샵
샷
샹
샾
섀
섁
섕
서
석
섞
선
섣
설
섥
섬
섭
섯
섰
성
섲
섴
섶
세
섹
섺
센
셀
셈
셉
셋
셌
셍
셐
셑
셓
셔
셕
션
셜
셤
셥
셧
셨
셩
셰
셱
셴
셸
솅
소
속
솎
손
솓
솔
솜
솝
솟
송
솤
솥
솨
솩
솬
솰
솽
쇄
쇅
쇆
쇗
쇜
쇠
쇡
쇤
쇳
쇼
쇽
숀
숄
숍
숏
숑
숖
수
숙
순
숟
술
숨
숩
숫
숭
숮
숯
숱
숲
숴
숵
숸
숼
쉅
쉈
쉐
쉑
쉒
쉔
쉘
쉡
쉣
쉥
쉨
쉬
쉭
쉰
쉴
쉼
쉽
쉿
슁
슆
슈
슉
슌
슐
슘
슙
슛
슝
스
슥
슨
슬
슭
슴
습
슷
승
슼
슾
싀
싄
싈
싑
시
식
싞
신
싢
싣
실
싨
싫
심
십
싮
싯
싰
싱
싲
싴
싶
싷
싸
싹
싼
쌀
쌂
쌈
쌉
쌋
쌌
쌍
쌓
쌔
쌕
쌖
쌘
쌤
쌧
쌨
쌩
쌬
쌰
썁
썅
썌
썡
써
썩
썪
썬
썰
썸
썹
썻
썼
썽
쎀
쎄
쎅
쎆
쎈
쎌
쎔
쎗
쎘
쎜
쎠
쎼
쏘
쏙
쏜
쏟
쏠
쏨
쏩
쏫
쏭
쏱
쏴
쏵
쏼
쐇
쐈
쐐
쐑
쐬
쑈
쑤
쑥
쑨
쑬
쑴
쑵
쑹
쒀
쒜
쒝
쒞
쒸
쒹
쒼
쓉
쓔
쓰
쓱
쓴
쓸
씀
씁
씅
씌
씐
씝
씞
씨
씩
씬
씰
씸
씹
씻
씼
씽
앂
아
악
안
앉
않
앋
알
앍
앎
앏
앓
암
압
앖
앗
았
앙
앚
앜
앝
앞
앟
애
액
앤
앨
앰
앱
앳
앴
앵
야
약
얀
얄
얇
얌
얍
얏
얐
양
얒
얔
얕
얖
얗
얘
얜
얨
어
억
얶
얷
언
얹
얺
얻
얼
얽
엄
업
없
엇
었
엉
엊
엌
엎
엏
에
엑
엔
엘
엠
엡
엣
엤
엥
엨
엪
여
역
엮
연
열
엷
염
엽
엾
엿
였
영
옄
옅
옆
옇
예
옉
옌
옐
옘
옙
옛
옜
오
옥
온
올
옭
옮
옯
옰
옳
옴
옵
옶
옷
옹
옺
옻
옼
옿
와
왁
완
왈
왐
왑
왓
왔
왕
왘
왜
왝
왠
왤
왱
외
왼
욀
욌
욍
요
욕
욘
욜
욤
욥
욧
용
욬
우
욱
운
욷
울
욹
움
웁
웃
웅
워
웍
원
월
웜
웟
웠
웡
웤
웨
웩
웬
웰
웸
웹
웻
웽
윀
위
윅
윈
윌
윔
윕
윗
윘
윙
유
육
윤
율
윰
윳
융
윷
으
윽
윾
은
읁
읃
을
읅
읆
읇
읊
읋
음
읍
읎
읏
응
읔
읕
읖
읗
의
읜
읠
읭
이
익
읶
인
읹
읺
읻
일
읽
읿
잃
임
입
잆
잇
있
잉
잊
잋
잌
잍
잎
잏
자
작
잔
잖
잗
잘
잚
잟
잠
잡
잣
잤
장
잦
잨
잪
잫
재
잭
잰
잴
잼
잽
잿
쟀
쟁
쟈
쟉
쟌
쟎
쟐
쟙
쟛
쟜
쟝
쟤
쟨
저
적
전
젇
절
젊
젋
젏
점
접
젓
젔
정
젖
젗
젙
젛
제
젝
젠
젤
젬
젭
젯
젰
젱
젴
져
젹
젼
졀
졋
졌
졍
졎
졓
졔
졘
조
족
존
졷
졸
좀
좁
좃
좄
종
좆
좇
좈
좉
좋
좌
좍
좔
좝
좟
좡
좢
좨
죄
죈
죌
죕
죗
죙
죠
죡
죤
죧
죨
죰
죳
죴
죵
죷
죸
죹
주
죽
준
줄
줌
줍
줏
중
줒
줗
줘
줙
줜
줠
줫
줬
줭
줮
줱
줴
쥐
쥑
쥔
쥘
쥣
쥤
쥥
쥬
쥭
쥰
쥴
쥼
즁
즈
즉
즌
즐
즘
즙
즛
증
즞
즤
즥
즨
즹
지
직
진
짆
짇
질
짊
짋
짐
집
짒
짓
짔
징
짖
짗
짘
짙
짚
짛
짜
짝
짠
짢
짤
짦
짧
짬
짭
짯
짰
짱
짲
짴
째
짹
짼
쨀
쨈
쨉
쨋
쨌
쨍
쨓
쨔
쨘
쨩
쨰
쩌
쩍
쩐
쩔
쩜
쩝
쩟
쩠
쩡
쩨
쪄
쪅
쪈
쪕
쪘
쪙
쪼
쪽
쪾
쫀
쫄
쫌
쫍
쫏
쫑
쫒
쫓
쫗
쫘
쫙
쫩
쫭
쬐
쬬
쬭
쭈
쭉
쭌
쭐
쭘
쭙
쭛
쭝
쭤
쭵
쮜
쮸
쯔
쯕
쯤
쯥
쯧
쯩
쯪
쯫
찌
찍
찎
찐
찔
찜
찝
찟
찡
찢
찣
찧
차
착
찬
찮
찰
참
찹
찻
찼
창
찾
찿
챃
채
책
챈
챌
챔
챕
챗
챘
챙
챠
챡
챤
챦
챨
챰
챵
처
척
천
철
첨
첩
첫
첬
청
첮
체
첵
첸
첼
쳄
쳅
쳇
쳉
쳐
쳑
쳔
쳘
쳣
쳤
쳥
쳬
초
촉
촌
촐
촘
촙
촛
총
촞
촟
촣
촤
촥
촨
촬
촵
촹
쵀
최
쵝
쵸
춋
춍
추
축
춘
출
춤
춥
춧
충
춰
춴
췃
췄
췌
취
췬
츄
츈
츌
츔
츙
츠
측
츤
츨
츰
츳
층
츼
칀
치
칙
친
칠
칡
침
칩
칫
칬
칭
칮
칰
카
칵
칸
칼
캄
캅
캇
캉
캌
캍
캐
캑
캔
캘
캠
캡
캣
캤
캥
캬
캭
컄
커
컥
컨
컫
컬
컴
컵
컷
컸
컹
케
켁
켄
켈
켐
켑
켓
켔
켕
켜
켠
켤
켬
켭
켯
켰
켱
켸
코
콕
콘
콜
콤
콥
콧
콩
콰
콱
콴
콸
쾅
쾈
쾌
쾍
쾡
쾨
쾰
쿄
쿈
쿠
쿡
쿤
쿨
쿰
쿱
쿳
쿵
쿸
쿼
퀀
퀄
퀑
퀘
퀜
퀭
퀴
퀵
퀸
퀼
큄
큅
큐
큔
큘
큠
큥
크
큭
큰
클
큼
큽
큿
킁
킄
킅
킈
키
킥
킨
킬
킴
킵
킷
킹
킼
타
탁
탄
탈
탉
탐
탑
탓
탔
탕
태
택
탠
탤
탬
탭
탯
탰
탱
탸
탹
터
턱
턴
털
텀
텁
텃
텄
텅
텋
테
텍
텐
텔
템
텝
텟
텡
텨
텬
텻
텼
톄
톈
토
톡
톤
톨
톰
톱
톳
통
톼
퇄
퇘
퇫
퇬
퇴
툇
툐
툥
투
툭
툰
툴
툼
툽
퉁
퉈
퉛
퉜
퉤
퉷
퉸
튀
튄
튈
튐
튓
튕
튜
튠
튤
튬
튭
트
특
튼
튿
틀
틂
틈
틉
틋
틍
틑
틔
티
틱
틴
틸
팀
팁
팃
팅
파
팍
팎
판
팔
팜
팝
팟
팠
팡
팤
팥
패
팩
팬
팰
팸
팹
팻
팼
팽
퍄
퍅
퍈
퍌
퍙
퍠
퍼
퍽
펀
펄
펌
펍
펏
펐
펑
페
펙
펜
펠
펨
펩
펫
펭
펴
편
펼
폄
폇
폈
평
폐
폔
포
폭
폰
폴
폼
폽
폿
퐁
퐈
퐉
퐐
퐝
푀
푈
표
푠
푯
푱
푸
푹
푼
풀
품
풉
풋
풍
풰
퓌
퓨
퓰
퓸
퓽
프
픈
플
픔
픕
픙
픠
피
픽
핀
필
핌
핍
핏
핑
하
학
한
핝
핟
할
핡
핣
핥
핧
함
합
핫
핬
항
핮
핰
핱
핳
해
핵
핸
핼
햄
햅
햇
했
행
햊
햌
햏
햐
햑
햔
햘
햝
햡
햣
햤
향
햬
햿
헀
허
헉
헌
헐
험
헙
헛
헝
헠
헣
헤
헥
헨
헬
헴
헵
헷
헸
헹
헿
혀
혁
현
혈
혐
협
혓
혔
형
혜
호
혹
혼
홀
홈
홉
홋
홍
홑
홓
화
확
환
활
홤
홥
홧
황
홰
홱
횃
회
획
횐
횔
횟
횡
효
횬
횽
후
훅
훈
훌
훍
훑
훓
훔
훕
훗
훙
훠
훤
훨
훼
훽
휀
휄
휏
휑
휘
휙
휜
휠
휨
휩
휭
휴
휸
휼
흄
흉
흐
흑
흔
흘
흙
흠
흡
흣
흥
흩
희
흭
흰
흴
히
힉
힌
힐
힘
힙
힛
힝
힣
金
不
女
龍
六
李
︎
️
！
％
＆
（
）
＊
＋
，
－
．
／
０
１
２
３
４
：
；
＜
＝
＞
？
＠
Ａ
Ｅ
Ｏ
Ｓ
［
］
ｍ
｜
～
｢
｣
･
ﾞ
￦
🇨
🇭
🇯
🇰
🇳
🇵
🇷
🇸
🇹
🇺
🇼
🌈
🌋
🌕
🌙
🌛
🌜
🌟
🌠
🌩
🌶
🌷
🌸
🌹
🌺
🌻
🌼
🌿
🍀
🍆
🍉
🍊
🍌
🍎
🍑
🍒
🍓
🍭
🍾
🎀
🎃
🎆
🎈
🎉
🎊
🎗
🎤
🎯
🎵
🎶
🎺
🏻
🏼
🏽
🏾
🏿
🐀
🐁
🐂
🐅
🐈
🐍
🐎
🐑
🐒
🐓
🐔
🐕
🐖
🐗
🐙
🐛
🐣
🐤
🐥
🐦
🐧
🐩
🐭
🐮
🐯
🐰
🐱
🐴
🐵
🐶
🐷
🐸
🐽
🐾
👀
👄
👅
👈
👉
👊
👋
👌
👍
👎
👏
👑
👞
👟
👣
👤
👥
👦
👧
👨
👩
👴
👹
👺
👻
👽
👿
💀
💃
💋
💎
💐
💓
💔
💕
💖
💗
💘
💙
💚
💛
💜
💝
💞
💟
💢
💣
💥
💦
💨
💩
💪
💫
💯
💰
💸
📛
📢
📣
🔊
🔔
🔖
🔞
🔥
🔨
🔪
🔫
🔴
🔵
🔶
🔸
🔹
🔺
🕊
🕯
🖐
🖕
🖤
🗡
🗣
😀
😁
😂
😃
😄
😅
😆
😇
😈
😉
😊
😋
😌
😍
😎
😏
😐
😑
😒
😓
😔
😕
😖
😗
😘
😙
😚
😛
😜
😝
😞
😠
😡
😢
😣
😤
😥
😧
😨
😩
😪
😫
😬
😭
😮
😰
😱
😲
😳
😴
😵
😶
😷
😻
🙂
🙄
🙅
🙆
🙇
🙈
🙉
🙊
🙋
🙌
🙏
🚀
🚨
🚩
🚫
🚴
🛑
🤐
🤑
🤔
🤗
🤡
🤢
🤣
🤤
🤦
🤨
🤩
🤪
🤫
🤬
🤭
🤮
🤯
🤴
🤷
🥇
🥊
🥰
🥳
🥶
🥺
🦀
🦅
🦇
🦉
🦊
🦍
🦜
🦴
🦶
🧟
🧡
🩸
##지
##시
##켰
##다
##는
##건
##가
##별
##과
##일
##피
##해
##상
##치
##대
##로
##라
##면
##리
##나
##이
##에
##연
##안
##하
##열
##조
##작
##3
##4
##1
##2
##기
##사
##햇
##데
##우
##러
##와
##줄
##디
##아
##비
##서
##o
##r
##V
##H
##v
##d
##y
##m
##a
##J
##M
##q
##u
##i
##l
##e
##n
##c
##은
##타
##거
##야
##방
##질
##소
##된
##했
##입
##니
##압
##느
##냐
##9
##만
##구
##실
##고
##을
##찢
##어
##버
##려
##색
##겠
##습
##수
##의
##게
##ㅜ
##폭
##내
##였
##레
##스
##트
##있
##것
##인
##국
##민
##들
##흘
##적
##용
##함
##신
##미
##관
##계
##복
##원
##닐
##때
##잖
##요
##딱
##벗
##으
##봉
##분
##교
##섭
##외
##희
##정
##부
##5
##8
##명
##좀
##짓
##란
##걸
##갈
##빠
##여
##한
##싱
##할
##합
##식
##톤
##배
##모
##없
##경
##럴
##종
##선
##예
##진
##문
##0
##달
##네
##폐
##톡
##놓
##같
##겟
##따
##행
##자
##그
##제
##ㅡ
##황
##학
##주
##까
##씨
##영
##향
##증
##둥
##겄
##글
##볼
##도
##알
##뭐
##편
##책
##획
##죄
##집
##단
##깐
##당
##ㅃ
##애
##백
##성
##틀
##화
##재
##보
##호
##령
##됩
##력
##껴
##바
##업
##생
##허
##망
##살
##죽
##발
##꺼
##론
##몰
##년
##넘
##둬
##착
##되
##친
##파
##넣
##동
##족
##체
##잊
##린
##던
##래
##쓸
##길
##찬
##찐
##ㅋ
##찍
##봄
##풀
##임
##었
##맹
##율
##갖
##척
##7
##찮
##ㅌ
##ㄱ
##ㄷ
##처
##유
##목
##변
##뽑
##중
##흡
##속
##물
##약
##T
##퀘
##놨
##봤
##더
##근
##승
##전
##공
##폴
##싫
##개
##람
##많
##았
##꼬
##쪽
##북
##쩍
##떨
##법
##음
##뻥
##슴
##랒
##천
##권
##테
##s
##b
##촉
##를
##찾
##격
##차
##능
##않
##겁
##쿠
##팀
##긴
##현
##코
##럼
##점
##녀
##혹
##오
##득
##켜
##셈
##회
##런
##른
##판
##말
##엄
##마
##킨
##창
##매
##짱
##깨
##새
##끼
##6
##절
##늘
##갱
##A
##L
##N
##D
##E
##R
##무
##갔
##쓰
##번
##째
##둘
##억
##검
##먼
##저
##딩
##멀
##랑
##평
##감
##즈
##루
##르
##셨
##뭔
##봣
##강
##골
##각
##간
##설
##패
##막
##G
##p
##장
##채
##남
##병
##투
##답
##손
##받
##운
##역
##겹
##넹
##왜
##키
##툭
##옥
##팔
##텔
##위
##I
##F
##C
##웅
##봐
##터
##혀
##g
##w
##B
##후
##너
##렇
##듯
##양
##세
##본
##금
##ㆍ
##누
##윈
##준
##쟁
##벌
##힘
##닙
##욕
##껄
##줘
##록
##노
##석
##월
##술
##싶
##템
##뀌
##맞
##며
##썸
##포
##펑
##산
##초
##쿼
##크
##효
##언
##률
##쩌
##립
##쳐
##먹
##든
##났
##t
##→
##델
##링
##땜
##먄
##프
##익
##숙
##태
##광
##핵
##메
##등
##심
##늄
##빼
##빨
##택
##견
##왔
##귀
##칸
##낙
##찰
##랍
##ㅉ
##쉬
##름
##완
##큼
##뿐
##드
##싸
##뢰
##첩
##죠
##형
##넌
##올
##S
##🙏
##응
##청
##객
##잡
##두
##항
##페
##불
##헌
##훈
##쥬
##닥
##랭
##홀
##협
##환
##놈
##난
##출
##통
##f
##렀
##긁
##측
##표
##락
##퀴
##럭
##∼
##ㄲ
##웃
##탄
##군
##직
##확
##님
##멍
##돼
##뜬
##튼
##져
##범
##빙
##염
##냥
##흐
##쁘
##앉
##엔
##뇌
##곳
##담
##똑
##히
##반
##못
##줬
##앵
##릴
##곡
##날
##워
##랬
##랠
##써
##클
##팻
##박
##탱
##ｍ
##험
##악
##곤
##왕
##찌
##겨
##토
##튜
##덕
##앨
##닫
##베
##혜
##밀
##O
##お
##で
##か
##け
##활
##김
##옹
##댈
##슈
##ㅈ
##될
##뜨
##렴
##플
##쇄
##핑
##픈
##결
##쪘
##룬
##짜
##P
##찜
##납
##료
##논
##봅
##낄
##힐
##티
##므
##앙
##탑
##삭
##ㅎ
##땐
##울
##킈
##W
##풍
##럽
##k
##묘
##랄
##U
##K
##꼽
##읍
##총
##잘
##쩝
##♪
##틸
##헤
##혐
##잇
##콩
##뉴
##혈
##붙
##얼
##꾸
##렷
##섬
##급
##렸
##값
##늠
##삼
##턴
##쉽
##육
##돈
##낼
##좋
##빛
##또
##잔
##균
##블
##ㅠ
##닝
##극
##ォ
##ー
##ク
##ロ
##イ
##ド
##쯤
##밋
##퇴
##닌
##눈
##👍
##🏻
##밥
##썰
##댓
##챠
##류
##슨
##졌
##징
##욬
##참
##덜
##카
##씀
##순
##례
##둑
##쩐
##떡
##됐
##련
##닛
##께
##얔
##샤
##믿
##접
##온
##충
##ㅏ
##뇨
##읽
##숨
##혼
##독
##탕
##x
##널
##꿀
##밍
##ㄴ
##롬
##붇
##ᆢ
##굴
##좌
##즉
##량
##j
##ì
##뭘
##밖
##겅
##끔
##ü
##휴
##팩
##겼
##떄
##뚱
##쫄
##믄
##몬
##탈
##닉
##뚜
##껑
##덴
##렝
##ι
##α
##ο
##ύ
##ρ
##τ
##념
##특
##텐
##뤄
##축
##쓴
##뒷
##묵
##섯
##앗
##됨
##껍
##쎄
##혁
##넼
##괴
##퍼
##쟈
##품
##맨
##삐
##밭
##봥
##ㅅ
##굳
##ㅁ
##돕
##룹
##슬
##궄
##렁
##뜰
##최
##χ
##ˈ
##ʔ
##졋
##머
##암
##컷
##껌
##벼
##떤
##콘
##멱
##취
##롭
##혔
##릇
##ㅂ
##짖
##딴
##떳
##핀
##쑤
##셔
##케
##떠
##캠
##칠
##귈
##짐
##밸
##ㅇ
##ı
##ㅣ
##ㄹ
##빈
##끄
##긍
##캣
##멈
##춤
##헛
##흥
##줌
##쌀
##눌
##돌
##잉
##낸
##멸
##킬
##빅
##움
##탁
##ヤ
##ジ
##쁜
##꼇
##끗
##랴
##릉
##송
##빌
##h
##콤
##렉
##잠
##넉
##밈
##씩
##끽
##센
##и
##́
##к
##т
##о
##р
##밴
##닿
##젤
##됬
##빡
##룰
##볍
##젯
##뽄
##랜
##싼
##캐
##릭
##낭
##Y
##얘
##뱀
##궁
##😮
##넷
##엇
##셍
##앞
##뱉
##츄
##듭
##닷
##브
##웍
##젖
##꼭
##z
##뺑
##촐
##낀
##굶
##Z
##늙
##캄
##엽
##춘
##잣
##녜
##졸
##벨
##높
##á
##꽃
##십
##읎
##팅
##쉑
##홍
##빵
##컴
##꿔
##퓨
##б
##е
##д
##ь
##펴
##엘
##쿡
##훅
##갑
##펙
##쥐
##컵
##읊
##뒤
##녹
##쩡
##헬
##갤
##셜
##꼴
##썅
##띡
##깔
##룩
##쏘
##륙
##モ
##ン
##ウ
##ェ
##ル
##ス
##츠
##젼
##커
##뮤
##텀
##렜
##옷
##る
##ど
##탓
##림
##꼰
##깜
##쪼
##ä
##쏴
##펜
##땅
##ㅊ
##휘
##탬
##웠
##쪄
##녔
##규
##헉
##픽
##옵
##션
##놀
##욧
##냄
##쬬
##촬
##녕
##눔
##몇
##쑈
##액
##존
##う
##ひ
##と
##つ
##の
##カ
##ッ
##プ
##リ
##グ
##갓
##램
##タ
##ピ
##ト
##を
##ㄸ
##필
##욱
##둔
##뱃
##マ
##チ
##똥
##끈
##댕
##컨
##닮
##て
##な
##い
##셋
##쌔
##쳬
##잼
##꺽
##탔
##짘
##덩
##홉
##엠
##ㅐ
##겪
##첨
##뮌
##푸
##닼
##뺏
##뎈
##쌍
##맥
##즘
##켓
##놉
##°
##붕
##털
##꽂
##댔
##랩
##층
##힝
##침
##핸
##쇼
##밑
##뤼
##냉
##씹
##쌖
##농
##ㅆ
##몀
##궜
##끌
##묻
##겐
##걱
##벙
##얄
##쯧
##쿸
##😝
##🐶
##닠
##퍠
##철
##옛
##곽
##슛
##ゲ
##セ
##숭
##た
##ぁ
##ん
##캔
##젠
##꾼
##읻
##낫
##추
##샛
##밝
##쏟
##깝
##푼
##껏
##♥
##뵈
##큐
##짝
##쥤
##🐕
##짤
##옴
##벳
##섰
##즌
##몸
##꺄
##ㅗ
##및
##융
##즐
##쳤
##맛
##몌
##렬
##촌
##뿌
##굿
##칼
##횽
##훼
##ㅔ
##맘
##뻐
##뷔
##픔
##략
##갰
##팝
##낑
##봇
##쎼
##앴
##눠
##샵
##뽀
##앤
##엮
##듣
##벽
##뻔
##붓
##젔
##ㅍ
##괜
##❤
##👏
##햬
##낮
##멉
##☆
##샌
##겜
##탐
##뛰
##꼐
##ア
##ラ
##Ⅱ
##륵
##멘
##Q
##셉
##겔
##윤
##낰
##👩
##👧
##👨
##뙈
##썪
##팁
##놔
##φ
##λ
##ε
##ή
##쉐
##껐
##～
##엿
##갯
##셀
##엎
##챙
##폰
##즹
##앚
##젓
##쇠
##짛
##깥
##렠
##딸
##뻘
##▶
##X
##씻
##び
##き
##り
##밟
##쥔
##わ
##せ
##읭
##ば
##っ
##ち
##ゃ
##よ
##숑
##ᆡ
##😄
##헨
##엉
##≫
##댁
##긋
##끝
##빗
##곘
##핥
##а
##в
##л
##с
##м
##왈
##랐
##ㅑ
##깽
##낌
##뜻
##닦
##뇬
##샷
##뜩
##갚
##숩
##꽈
##촛
##꼼
##↗
##냈
##뎃
##딲
##떻
##큰
##륭
##뷰
##흰
##킹
##톰
##퇄
##뇐
##띠
##횡
##웨
##쭐
##★
##슷
##쿄
##잃
##é
##씌
##퐁
##궐
##궈
##쌓
##떼
##륜
##첵
##겸
##뤘
##🌹
##ㅓ
##쳔
##돠
##벅
##힌
##깞
##㎡
##놐
##렛
##뎅
##️
##귄
##뚝
##톱
##휼
##엣
##눙
##묶
##솔
##퓰
##텅
##킴
##곶
##칭
##룡
##싹
##ボ
##벤
##쿰
##렵
##ょ
##닭
##깡
##칙
##겉
##릿
##꺠
##끊
##놋
##랫
##걍
##샠
##섹
##ィ
##ニ
##×
##─
##😂
##틴
##멜
##꽉
##뭌
##긔
##웁
##쌤
##먀
##쥥
##뫈
##뺄
##홈
##롱
##젊
##텨
##듵
##덤
##😔
##숲
##삽
##듐
##쌌
##댜
##맙
##윅
##좃
##롤
##됀
##텃
##잏
##팡
##풋
##뭉
##늦
##셰
##냨
##챈
##낳
##팬
##バ
##콕
##땨
##섀
##듬
##숫
##덮
##꽁
##뎌
##랗
##좆
##🐒
##뼈
##뜯
##넬
##に
##だ
##렘
##젹
##맺
##ブ
##キ
##ズ
##쿨
##쵸
##냔
##밤
##짧
##냅
##몽
##겆
##ダ
##핏
##췌
##쬐
##켯
##쨔
##뀐
##덱
##ㅟ
##욘
##죤
##뽕
##윗
##탠
##렌
##깃
##뻴
##멋
##팜
##뜀
##ワ
##パ
##レ
##💙
##딜
##틈
##짚
##궤
##웤
##셧
##휠
##잎
##⃣
##텝
##랙
##룸
##얻
##꿈
##퇫
##😡
##ガ
##テ
##럾
##넓
##뻡
##꿉
##컬
##렙
##튀
##し
##ぐ
##も
##🌷
##ま
##ぴ
##걷
##왓
##윙
##्
##ß
##맡
##㏊
##♂
##캡
##슐
##콜
##ㅢ
##じ
##さ
##ろ
##く
##む
##🔥
##샘
##쏭
##찿
##곧
##ᄂ
##ᆞ
##ᆫ
##굽
##갗
##쩔
##믜
##뜸
##햏
##핌
##쁠
##こ
##랏
##맷
##똘
##ゥ
##곰
##몫
##サ
##ナ
##벡
##끠
##🍎
##펄
##シ
##ャ
##👈
##팸
##흑
##춰
##깊
##😗
##✊
##킥
##Э
##С
##젴
##캬
##흔
##츼
##쯔
##떽
##슙
##짬
##쒜
##í
##칩
##🐷
##깠
##맏
##쉰
##す
##ら
##썼
##럿
##ㅕ
##셤
##퐐
##홋
##뎀
##듦
##삿
##슥
##썻
##і
##ч
##н
##롯
##뎐
##🦅
##켤
##댘
##땡
##콥
##🎗
##🕯
##☑
##✌
##🙌
##💸
##😷
##😤
##듀
##늬
##갭
##샐
##펼
##볶
##짲
##옮
##꼈
##됄
##쑨
##🇰
##🇷
##썩
##흉
##씬
##웹
##펌
##뚫
##팠
##줜
##맴
##쩜
##쑥
##탹
##뺀
##톨
##뇽
##떴
##ö
##짠
##앖
##씸
##냇
##デ
##が
##폼
##ミ
##턱
##싀
##れ
##ギ
##촨
##펀
##쾨
##몹
##틱
##멧
##넥
##댄
##●
##🤣
##😅
##뱅
##눜
##팟
##윌
##깬
##👉
##쟎
##맵
##딨
##🌟
##💘
##🥳
##팍
##얖
##や
##솤
##헷
##돤
##돋
##ī
##퉈
##켈
##밬
##쉼
##쉥
##쉨
##ゾ
##뽝
##룐
##꿍
##ç
##괄
##㎏
##텍
##싯
##쾌
##쏠
##셐
##왼
##ё
##싄
##졍
##쉴
##👎
##늑
##훔
##쫒
##쎈
##넝
##븐
##쥭
##ツ
##オ
##얌
##딕
##땀
##샊
##🤑
##쫌
##ắ
##팎
##엑
##ㅛ
##씁
##쥰
##쫓
##툰
##맀
##낍
##댐
##칵
##🏼
##떵
##ㅒ
##↑
##밌
##낵
##빽
##빔
##햄
##빚
##뤌
##삶
##솥
##낯
##쿵
##꽝
##얏
##🌈
##💕
##챘
##챌
##덟
##곱
##짼
##ń
##뒈
##퉁
##➡
##탸
##샴
##툼
##メ
##は
##탭
##핍
##켐
##귤
##ā
##섞
##ē
##햔
##롸
##쎅
##줍
##💪
##싞
##싲
##짰
##뎠
##졔
##챨
##뭣
##룽
##뿔
##뒀
##😱
##딘
##슝
##쒸
##퍽
##갘
##х
##ж
##쁨
##쭝
##줏
##ş
##멩
##깁
##겡
##괭
##헐
##킵
##짇
##뎁
##💩
##헝
##칫
##첼
##❗
##ノ
##ã
##밣
##ほ
##됫
##쳉
##놧
##ご
##ざ
##굥
##랔
##👽
##넛
##걔
##퇘
##맂
##✨
##ョ
##핰
##◇
##쳣
##탤
##푹
##🐦
##フ
##멓
##👹
##쌕
##갇
##돔
##콧
##쌈
##롷
##앱
##😁
##땄
##ュ
##굵
##뮈
##ᄅ
##썽
##앓
##®
##셸
##믹
##뽜
##돗
##🐅
##봬
##욌
##썬
##홧
##ف
##ق
##ل
##ر
##د
##ه
##ห
##ว
##้
##ค
##ร
##र
##ा
##흙
##윽
##겻
##😉
##젝
##깍
##ぼ
##앰
##쫑
##곙
##렐
##쌘
##첫
##찻
##쌨
##깉
##밉
##잰
##뤠
##🤔
##💜
##띄
##쉭
##넸
##켄
##읿
##앜
##윕
##ō
##😎
##샣
##룻
##ケ
##ビ
##Ş
##냠
##캉
##앳
##밧
##챃
##랖
##혓
##㎞
##곁
##뻣
##쟌
##뽐
##■
##햐
##줒
##듈
##땟
##▼
##찔
##왠
##샨
##꾿
##딧
##앟
##ا
##م
##ت
##ی
##잦
##찡
##땃
##あ
##찝
##옆
##푠
##킁
##ベ
##쌉
##됏
##퍄
##웩
##핫
##즤
##멎
##옌
##슘
##잌
##즙
##횟
##콰
##넙
##헸
##겧
##맣
##펠
##숄
##뭄
##헀
##껀
##쎔
##🎉
##ず
##쭌
##볐
##툴
##３
##녁
##😭
##쯩
##팽
##쭈
##😊
##휙
##쟤
##냬
##밷
##곀
##훨
##빤
##굼
##🌙
##쾅
##줴
##뀔
##쥘
##ć
##씽
##짗
##뉘
##ê
##덥
##윔
##줫
##ú
##쨋
##뚤
##욤
##ñ
##몯
##깅
##왐
##맸
##👅
##곈
##펫
##홥
##릐
##エ
##홰
##♡
##è
##🦴
##웟
##쌩
##🇯
##🇵
##믈
##💝
##좉
##꾹
##볕
##썹
##ㅚ
##딪
##ヒ
##😠
##👿
##섁
##™
##챔
##돨
##펩
##잤
##ァ
##🖤
##낚
##켠
##듄
##ね
##갸
##젬
##넜
##🙊
##릅
##깆
##☝
##🚴
##벵
##킷
##죳
##뗘
##멕
##쥼
##꽤
##곸
##왤
##끕
##깎
##😈
##ㅖ
##ы
##й
##힙
##꿘
##팰
##쭙
##쫘
##됴
##뱡
##붤
##옳
##뵙
##쉣
##쏜
##겍
##쫏
##엾
##흠
##풉
##얹
##🇳
##🇨
##덯
##읏
##훠
##컥
##퉤
##△
##뭇
##햤
##쭉
##첸
##뿜
##👥
##👣
##듸
##찼
##я
##끓
##땠
##옶
##욥
##у
##①
##갼
##👴
##섺
##ị
##벋
##읅
##맇
##솜
##뿍
##늣
##갹
##🙈
##벚
##밞
##쿤
##え
##앎
##ㄳ
##😚
##🌸
##캘
##괸
##💗
##샹
##숴
##ぬ
##죌
##텡
##쇳
##샅
##훙
##🏾
##췄
##귝
##셩
##좁
##ぃ
##붐
##띵
##😏
##😍
##켕
##ハ
##샀
##햅
##👤
##ū
##욜
##ę
##맑
##ơ
##훤
##⚡
##😆
##엡
##톈
##띨
##😃
##쭘
##왑
##싑
##み
##겋
##팥
##굉
##췬
##숮
##잽
##О
##Л
##Т
##В
##Е
##뤡
##닳
##웰
##튠
##ᆯ
##↔
##빻
##ユ
##😰
##쌰
##얀
##몃
##🔹
##😜
##🏽
##쓱
##튭
##퀸
##²
##ό
##ς
##ᇰ
##쨌
##쟝
##툥
##쟜
##덧
##븅
##롄
##눗
##눞
##ポ
##ペ
##쐈
##죸
##컹
##붉
##잋
##쾡
##à
##ǎ
##뫄
##β
##엌
##낔
##깟
##꿩
##삵
##껭
##솓
##삣
##츙
##삘
##🤬
##😥
##눼
##😇
##늪
##🙄
##붸
##휩
##뛸
##핮
##쌋
##똬
##괘
##겤
##넴
##ᄀ
##ᄒ
##쇆
##쉿
##젱
##븀
##옺
##굣
##싢
##뺘
##짭
##뢀
##웜
##엪
##ạ
##껫
##댑
##셴
##띁
##켸
##숍
##쮜
##킅
##샋
##읗
##뵹
##슌
##걀
##볌
##г
##껬
##흣
##🍑
##❣
##엤
##욍
##멤
##👺
##😛
##챗
##릎
##뼝
##َ
##핳
##꿨
##뉼
##갬
##쎀
##걩
##🌺
##웬
##됌
##뗑
##퀄
##몾
##덫
##읁
##둡
##ゆ
##볘
##긕
##ㅄ
##쳥
##듲
##뱔
##👑
##뗄
##뒬
##퀼
##ต
##🤪
##🖕
##ᄃ
##∞
##뽈
##㎜
##쐐
##줠
##뽁
##ù
##쩠
##죵
##끙
##틍
##뾰
##⋅
##ふ
##쟙
##텟
##빋
##ج
##ي
##ز
##ى
##👦
##ə
##킼
##😀
##Ⅳ
##ː
##괌
##둠
##핼
##ш
##뮐
##넨
##얕
##퍙
##쉒
##맜
##🌋
##뀜
##춥
##뷱
##촣
##✔
##탯
##샾
##냑
##믁
##π
##헥
##🧡
##💛
##💚
##빳
##맢
##녘
##💖
##딍
##핱
##コ
##셌
##숀
##🦜
##껜
##💥
##튿
##뺐
##닞
##🐖
##ա
##ն
##즛
##🤗
##컸
##뗀
##و
##ن
##텁
##숯
##㈜
##튄
##훌
##꺾
##뺌
##챵
##맄
##얗
##ム
##쥴
##뇸
##삥
##θ
##ν
##짢
##둰
##핧
##뷴
##②
##떈
##😘
##꿇
##そ
##캇
##℃
##＞
##😐
##륨
##왘
##🎊
##딥
##쒝
##👊
##뷩
##뉜
##퍈
##옄
##젭
##ぶ
##🎃
##궂
##곯
##ㅘ
##겝
##눕
##룔
##뺴
##뽤
##놯
##ó
##맟
##쑵
##잗
##😙
##🐍
##햊
##큘
##늉
##놰
##컄
##🔞
##똔
##🔊
##📢
##ุ
##ิ
##ย
##า
##튤
##갠
##럈
##쏙
##🎶
##칮
##팹
##챤
##♯
##듷
##꾀
##홱
##둣
##렿
##엏
##릏
##헙
##쉈
##쨍
##뮬
##❌
##−
##늨
##쨩
##💀
##캥
##녈
##퀀
##엥
##웡
##뉩
##좇
##ɪ
##룀
##べ
##🚫
##씼
##🐾
##믾
##🤯
##퓸
##ぽ
##랃
##횐
##섴
##핝
##몈
##＋
##😬
##딛
##켱
##뗏
##넠
##귓
##묭
##잭
##뎬
##앋
##꼿
##↓
##↘
##③
##챦
##ʊ
##ゴ
##🤩
##붜
##ヘ
##♠
##ホ
##ゼ
##넋
##🐯
##뱁
##ה
##캅
##🥶
##텄
##슾
##∙
##뚕
##ぅ
##ザ
##쒞
##✋
##Ö
##빕
##즁
##윘
##쑬
##틔
##엨
##ส
##ี
##ง
##ด
##จ
##ล
##่
##อ
##ㅝ
##👌
##⭕
##🌿
##밨
##앂
##샜
##뭏
##ά
##ζ
##👋
##튬
##늗
##뇰
##딹
##뉸
##훗
##끅
##긱
##궛
##닺
##눅
##쇅
##☺
##🔴
##즨
##맬
##🚨
##갛
##벞
##핡
##뵐
##뵌
##쫙
##뷸
##듼
##뛴
##꿋
##쨈
##싴
##뫃
##³
##ぎ
##○
##◎
##얷
##낏
##ư
##ợ
##🐮
##☠
##🐵
##🐧
##🐸
##🐙
##🦉
##🤮
##큽
##👻
##ю
##щ
##윾
##㎢
##ソ
##믓
##빱
##뎡
##뺨
##휨
##뵨
##꽥
##뉨
##먕
##🥰
##げ
##뱐
##몆
##궝
##헴
##쮸
##옜
##똭
##햘
##칰
##폄
##쌬
##쩨
##🐀
##🔫
##뀝
##ヴ
##촘
##꿰
##잍
##쓔
##🔨
##솬
##γ
##υ
##닏
##톄
##ი
##얇
##몪
##ă
##쫀
##ぞ
##킄
##돚
##⅓
##ヌ
##퐈
##뎨
##욹
##솟
##젇
##😨
##└
##⇒
##±
##σ
##ө
##댯
##콴
##랸
##Ⅶ
##ώ
##μ
##튕
##틂
##ě
##늫
##뭥
##닻
##샄
##뒹
##쑹
##읇
##ו
##א
##쫭
##긎
##뙤
##뻗
##둗
##엊
##솨
##큔
##🍒
##🍌
##め
##뱌
##앏
##궨
##☞
##ᅩ
##괞
##긑
##퀵
##돴
##맆
##뺠
##읠
##💓
##💔
##짊
##갉
##ר
##י
##ぺ
##긷
##😵
##쓉
##앍
##붏
##⊙
##뿅
##엷
##첬
##쏨
##🤨
##🎀
##ý
##Ⅴ
##힉
##늕
##😢
##멊
##잴
##웽
##И
##뻬
##섲
##ﾞ
##픕
##😧
##ë
##🐑
##맠
##😞
##굔
##ệ
##뻑
##왁
##뵤
##붑
##낟
##æ
##잟
##ί
##ω
##옙
##얺
##꽌
##삑
##펐
##쨉
##Ｓ
##퉷
##ب
##촞
##켔
##긇
##곗
##ح
##춴
##딤
##뭍
##샥
##´
##둿
##젰
##휑
##쫗
##뀨
##꿧
##📣
##씝
##쎆
##퓌
##썌
##딫
##빰
##□
##깈
##へ
##â
##얍
##😣
##▲
##떔
##쎠
##숸
##틋
##땁
##벰
##옘
##찣
##슁
##캤
##틑
##죗
##됭
##뮛
##🇺
##🇸
##🤷
##♀
##꿎
##샏
##캍
##ф
##뺵
##옐
##쿳
##ㅞ
##떙
##깄
##폈
##늧
##з
##❓
##｜
##뗴
##욀
##뷘
##봨
##씅
##켬
##츨
##짦
##묹
##Ι
##펏
##읹
##뱄
##좄
##뿡
##💯
##틉
##짙
##짴
##셥
##뼉
##δ
##랰
##쇜
##밪
##㎝
##죈
##🤭
##ł
##ǔ
##⑥
##뗐
##⋯
##읶
##봘
##🦀
##듕
##졓
##츌
##몿
##㎥
##낱
##Ⅰ
##픠
##펍
##땔
##듥
##п
##눟
##å
##씰
##옼
##츈
##얨
##ネ
##멨
##🐰
##끍
##횔
##뛔
##ï
##깤
##읖
##샬
##🙆
##폿
##숱
##춧
##🐁
##أ
##졷
##ぱ
##🤦
##🙉
##찟
##꺅
##땝
##ᅀ
##ᅳ
##갂
##짹
##텼
##츤
##Р
##У
##셕
##햌
##돡
##얐
##햿
##돛
##뎄
##♦
##쪈
##륀
##줗
##푱
##뮨
##덪
##🗡
##🔪
##ش
##밎
##댠
##윰
##샙
##밢
##뗌
##띤
##읺
##◆
##큭
##ɐ
##븨
##🐈
##🙇
##묜
##뫼
##Á
##볻
##즥
##럄
##🌶
##🍉
##⭐
##촟
##퐉
##ぇ
##🏿
##ъ
##숵
##🙂
##띔
##😫
##떱
##ր
##땍
##넖
##뢔
##졀
##탉
##맍
##촤
##🐔
##🍭
##η
##벱
##죰
##츰
##💞
##ô
##🎆
##🥇
##쯕
##š
##랼
##얽
##쉅
##휜
##삔
##끋
##Д
##쐇
##쟛
##퐝
##ヨ
##땋
##욷
##얶
##Σ
##ò
##좝
##⑨
##😌
##ʰ
##뼌
##휄
##꾜
##삯
##좢
##잆
##빢
##ช
##น
##쉔
##😩
##ㅙ
##죨
##͡
##췃
##걑
##🐤
##좡
##햝
##🐓
##뜾
##샡
##😋
##댸
##✖
##깻
##쭵
##ц
##읜
##퍌
##Г
##댖
##ɛ
##쉘
##ɾ
##쫍
##볏
##믐
##쁩
##Δ
##💰
##볓
##줭
##꽐
##ゅ
##읔
##뺍
##К
##А
##슉
##좨
##핬
##س
##🍆
##찹
##▣
##챡
##🔸
##싷
##뢴
##싰
##싣
##낡
##━
##윳
##쒼
##♧
##Ａ
##섕
##💢
##⛔
##î
##헹
##솽
##쐬
##쟉
##녠
##č
##젗
##̈
##خ
##냣
##쿱
##묀
##쎜
##쥑
##헣
##궸
##쨓
##읕
##🦇
##κ
##휀
##쭤
##ᄌ
##💐
##싮
##솎
##㎍
##펨
##＜
##캭
##뜽
##줙
##춍
##뿟
##녓
##깰
##좟
##뤈
##ㄻ
##ɔ
##굻
##셓
##🤡
##곷
##뱍
##쇗
##펭
##ヶ
##멥
##숟
##숼
##궉
##쪅
##έ
##쎘
##텻
##쉡
##돟
##❎
##귐
##💋
##슭
##읋
##툇
##✳
##켑
##ก
##็
##ม
##บ
##뚯
##옇
##렣
##닜
##닢
##깂
##컫
##◯
##죡
##🍀
##붱
##옭
##Ü
##뻤
##🚀
##쒹
##핣
##뼛
##쏩
##짔
##텋
##Ε
##ø
##샆
##▷
##🤤
##졎
##÷
##몄
##빴
##팼
##쳑
##칀
##쒀
##Φ
##Α
##Ⅲ
##묙
##얒
##ŏ
##짆
##🍊
##ề
##띌
##롼
##챕
##좈
##첮
##튐
##✴
##콱
##폔
##≒
##ᄆ
##ة
##횃
##쯪
##깩
##헠
##늡
##잚
##쐑
##먈
##뫠
##궹
##흭
##츳
##촙
##죷
##옿
##훕
##ʲ
##듁
##ぷ
##⬛
##힛
##햑
##쟨
##랳
##🌻
##챰
##ㄺ
##🦶
##텬
##쪕
##🕊
##샇
##캌
##ʃ
##ž
##💨
##💫
##ʒ
##긒
##Б
##М
##섶
##ǐ
##뤽
##😻
##쁀
##톳
##쏵
##🦍
##🐩
##셱
##쇡
##்
##숏
##쎗
##볜
##꽅
##🐥
##픙
##ɯ
##헿
##눴
##쀼
##믕
##🎈
##쳘
##떰
##º
##←
##ぜ
##ğ
##ʻ
##ל
##⅔
##쑴
##🙋
##뵜
##É
##뼘
##깢
##옰
##슼
##즞
##겈
##븥
##쏱
##ế
##굘
##핟
##썡
##✂
##흩
##🍾
##ŭ
##２
##롴
##팃
##🔵
##↙
##э
##👞
##봊
##죕
##👟
##탰
##벹
##됍
##셑
##촹
##넵
##닯
##좔
##흄
##🙅
##퉸
##쳅
##뭬
##댱
##뭅
##꿜
##ع
##죹
##잪
##쭛
##툽
##큄
##떢
##햡
##쳇
##ś
##묫
##볗
##０
##쵝
##🎵
##♣
##♤
##왱
##곪
##♬
##😑
##봌
##냌
##퀭
##🥺
##톼
##❄
##🐱
##섣
##☀
##เ
##＝
##⑮
##씞
##🐭
##퇬
##썁
##겂
##🐣
##⚠
##읆
##ᄉ
##뮴
##♭
##닽
##쟀
##딋
##몐
##💣
##젋
##ố
##│
##죙
##큿
##đ
##꙼
##😲
##😳
##💦
##ð
##̞
##㎒
##🍓
##ั
##싨
##😕
##Ⅵ
##💟
##닶
##พ
##ะ
##➝
##˚
##🌼
##쨰
##뭤
##🐎
##ấ
##찎
##넒
##☎
##ả
##🔶
##🔖
##옉
##🔔
##🎺
##ぉ
##😒
##팤
##롹
##Κ
##Γ
##묽
##얜
##♨
##🐗
##켁
##쇽
##㎑
##ⓐ
##힣
##쏫
##🐛
##œ
##윷
##칡
##ꉂ
##젛
##귁
##４
##읃
##ა
##쟐
##옯
##솝
##푈
##ọ
##촵
##쫩
##🐂
##빍
##녤
##ŋ
##잨
##쌧
##↖
##Ｅ
##솩
##📛
##숖
##뷜
##큅
##앝
##귿
##😓
##훑
##🥊
##냘
##ᅡ
##ك
##깸
##쥣
##겊
##깼
##뺃
##⑦
##😖
##☘
##뵘
##Π
##훓
##Ø
##ɑ
##븡
##튈
##쯥
##싈
##꽊
##쁑
##🖐
##쳄
##뭡
##눤
##づ
##︎
##맗
##캑
##뚠
##럐
##껸
##잿
##🔺
##😪
##©
##찧
##Ⅹ
##Ｏ
##븍
##뺕
##🐽
##뽂
##퀜
##ⓝ
##젙
##쩟
##꺵
##줱
##휸
##🗣
##똣
##띱
##🧟
##ท
##⑫
##댤
##꿏
##헵
##죧
##쬭
##◈
##푯
##🤢
##듫
##띈
##ứ
##쎌
##콸
##뼤
##갲
##묄
##묏
##묠
##뇜
##먾
##솰
##꾾
##줮
##뻠
##짯
##Ф
##≠
##홤
##ồ
##왝
##Ж
##Н
##웸
##🎯
##💎
##잫
##👄
##👀
##붘
##🐴
##Я
##쨀
##솅
##뜁
##륄
##㎾
##Ⓐ
##옻
##삻
##ʼ
##횬
##≤
##푀
##큠
##짋
##궃
##뉠
##뭠
##∫
##¥
##£
##€
##🦊
##춋
##븽
##씐
##П
##쪙
##빩
##뙨
##큥
##█
##🛑
##촥
##◀
##Ω
##믽
##🚩
##뮹
##ү
##뷁
##😴
##퓽
##쾈
##쯫
##죴
##똠
##밦
##돝
##짒
##옅
##휏
##ớ
##🤐
##🇭
##∀
##훍
##🇼
##폇
##쪾
##🌛
##🌜
##≪
##▪
##☣
##🇹
##ᆷ
##１
##벛
##벧
##훽
##Š
##ǒ
##￦
##ヲ
##ɨ
##쾰
##ộ
##✅
##☹
##⑤
##붂
##칬
##ᄋ
##▒
##🌠
##흴
##뀠
##Ш
##😶
##🤫
##뻰
##슆
##햣
##켭
##Ч
##풰
##🎤
##½
##좍
##꿱
##꾐
##☢
##④
##≥
##뜹
##퍅
##폽
##쌂
##튓
##ầ
##ℓ
##З
##Λ
##쏼
##Τ
##▩
##꿴
##뜷
##쾍
##졘
##░
##🤴
##꽹
##젏
##홓
##툐
##뻇
##윀
##멏
##닾
##Ç
##İ
##🌩
##쵀
##µ
##ⓒ
##퉜
##퀑
##섥
##괵
##츔
##쇤
##₩
##웻
##ㅤ
##굇
##▽
##💃
##🌕
##⑧
##Х
##홑
##ậ
##ᚙ
##ᚖ
##⚖
##ờ
##┗
##휭
##걘
##껒
##Ц
##쿈
##쨘
##ĩ
##⑲
##떫
##㊗
##々
##ᄇ
##ễ
##Đ
##뮙
##삷
##Č
##☭
##퉛
##Μ
##◾
##√
##뙇
##🩸
##┣
##띕
##ỹ
##║
##◦
##으로
##에서
##하는
##하고
##니다
##이다
##들이
있다
##00
##했다
##는데
##지만
##한다
##라고
ㅋㅋ
##들은
국민
20
아니
사람
있는
##까지
##면서
##었다
##에게
##다고
##해서
대한
##하게
한국
우리
##이라
일본
하는
나라
문재
##하다
##부터
201
##습니다
##적으로
생각
##리고
중국
##하면
##하지
##이나
##적인
##대로
##으면
##통령
이런
한다
##에는
19
10
정부
##보다
지금
##나라
##는거
대통령
때문
문제
##니까
문재인
##렇게
진짜
##들의
##세요
##해야
200
##하기
##이고
같은
건설
미국
##다는
하고
그러
북한
##인데
들어
##된다
##리는
민주
정치
##하여
경제
서울
##들을
조국
##민국
지난
##입니다
##라는
만들
그냥
##자가
위해
경우
하나
##지는
##ㅋㅋ
##되는
것으로
##어서
##에도
이상
##에서는
대한민국
##겠다
그래
그런
##으며
##주의
아닌
##라도
##이지
##합니다
##였다
##지고
인간
때문에
##네요
없다
그리고
##한테
없는
이제
##같은
ㅋㅋㅋ
사업
##처럼
##해라
국가
다른
12
##이라고
##자는
지역
##구나
##기를
사용
모르
정신
정말
##레기
아이
가능
너무
11
##려고
검찰
##억원
##기에
이후
사실
필요
##는다
자신
##가는
##사를
이번
##리를
##았다
##건설
##인이
것이
##리가
##기도
기업
정도
따라
##어야
##기가
나오
민주당
아니라
무슨
##으니
모두
##er
아무
##하며
##사람
##0년
지지
##이는
정권
##an
많이
사회
시작
##이가
##들아
##인가
했다
##기는
15
##들도
##장이
댓글
##성이
하지
##스트
##장은
현재
##사가
세계
된다
##만원
##지도
모든
상황
##아서
##하면서
우리나라
아직
##다가
##파트
보고
기자
어떻
가장
하지만
함께
18
수준
##거나
100
##시키
많은
##OO
##정부
관련
국회
##기업
##되고
것이다
얼마
##장을
세금
조선
##것도
##레이
이미
자유
##는게
##on
30
##이냐
기사
##지를
자기
어떻게
위한
##도록
##in
분양
저런
##지가
이유
그렇게
##들에게
##소리
##력을
##인지
이용
##이라는
이게
피해
문재앙
지원
다시
어디
##있는
잘못
해야
당신
관계
대표
통해
##사업
것은
##한당
계속
이렇게
투자
##의원
돌아
보면
##으나
##하네
##or
좌파
있어
##스크
것을
##수가
조사
##는지
쓰레기
##대가
결과
##해도
##어나
삼성
역시
아파트
##겠지
현대
자한당
국내
##되어
사이
결국
대해
개발
##사는
##아야
##잖아
사람이
##거리
언론
제발
다음
좋은
있었
누가
##시아
있을
##이네
##되었다
##000
계획
##도시
빨갱
##말고
##력이
시간
13
##학교
##없는
##놓고
일반
프로
##하는데
##로나
특히
이어
##하나
바로
##이야
제대로
OOO
##근혜
##성을
##시간
16
##에서도
25
##주는
그만
말했다
##됐다
모습
##가지
##정은
떨어
14
##자들
##위원
그럼
##보고
진행
##하냐
##졌다
공격
##하자
밝혔
##라이
##가구
##정권
##at
보수
##더니
보여
이름
##도로
이라고
##시다
좋아
경찰
##le
이해
선거
얼마나
예정
##동산
##없이
정책
기록
등을
##어도
##어요
##원이
##체가
##8년
대구
만들어
살아
수도
50
종합
코로나
기술
또한
당시
17
시장
경기
여기
하면
여자
추진
같이
최고
신천
내가
있는데
##en
##전에
##정을
밝혔다
##주고
상태
박근혜
##인다
일부
##ar
##하는거
정의
청와
##들어
##상이
##국민
부동산
##한거
책임
그러나
##9년
빨갱이
##치는
이러
##7년
##하였다
##들과
받아
알고
199
그렇
외국
아니고
##동안
전문
친일
거짓
수사
공산
##시켜
##상을
##5년
그래서
사건
##자를
##경제
##시장
어떤
##주택
최근
지난해
##부분
기준
처음
##기로
반대
규모
증가
##명이
되는
추가
여러
##이트
해외
상승
있고
##가서
##al
ㅉㅉ
##리에
올해
##이며
있습니다
##6년
게임
않고
교육
##이면
완전
내용
한번
중요
나온
##르면
주택
연구
부산
어느
나타
##산업
##개발
누구
당연
아니다
##진다
가족
안전
청와대
마스크
발생
##러운
##화를
##하라
아주
##정도
나라가
##이었
##중에
##했던
##제로
##스로
이건
##돼지
소리
말이
##나요
##지역
장관
##보면
방송
라고
관심
##로운
인정
##리아
##이라도
공급
말고
선동
않는
##드는
##시설
없어
##같이
물론
운영
##2년
근데
기대
##치고
##4년
##봐라
등장
마음
##문에
않은
언제
이야
공개
##것이
최대
##ol
발표
##도가
개인
설명
생산
도시
조작
##3년
##리지
##원은
40
합니다
시민
##을까
아직도
##스를
가지고
##되면
##하시
미친
아닌가
21
평가
##다니
범죄
사고
국민들
없이
대부분
앞으로
국제
ㅎㅎ
있었다
##자의
먼저
포함
##야지
미래
신천지
부모
##있다
##as
탄핵
니가
##하던
직접
어려
##치를
아베
##려는
##주세요
##구만
##겠네
##he
기본
##인은
##한다고
##되었
##밖에
##조사
국회의원
해결
##공사
##당이
산업
##뉴스
현실
사람들이
##하니
정상
등의
##도를
사람들
존재
보내
##마라
니들
절대
##했고
##린다
##1년
##새끼
그게
이를
참여
남자
사진
##es
##스터
상대
##서는
##되지
24
##머니
전체
설치
##정이
##수를
해당
하루
##수는
내년
##무원
##거다
더불
전부
발전
22
높은
##운동
##마다
##세를
여성
그리
등이
##아니
가격
전망
##거지
것도
좌빨
정부가
대깨
##운데
총선
인터
없고
전쟁
내려
이에
##시민
그는
않았
알려
오늘
확인
##일보
환경
회사
올라
해라
거의
결정
같다
##자리
##자로
자식
되었다
한심
##가고
뉴스
주민
김정은
후보
예상
지방
주장
해도
##먹고
##적이
##없다
빨리
##인의
국민이
세상
##조건
학교
구조
개돼지
23
과거
엄청
##스럽
대깨문
자신의
따르면
##인을
적용
유지
주변
금융
판단
##이랑
##르는
만든
지나
##에선
##르고
##렸다
영향
##위를
영화
구속
##it
여론
이라
행동
보인다
##스가
성공
새끼
무능
##자들이
##로는
부분
힘들
##시는
##텐데
##업체
##더라
##id
##와서
##하는게
대상
문제가
그런데
##이니
##스템
요즘
효과
대학
재앙
있으며
그래도
관리
하는데
넘어
비교
역사
##그룹
##ou
되어
못한
받고
세월
##했는데
요구
가짜
사기
##원을
뭐가
##지로
중심
동안
경쟁
학생
나는
얼굴
##인들
상당
##기관
##랜드
##가가
##하지만
의미
정보
##위원회
국민들이
##이란
전국
국민의
##는건
크게
지하
방법
기존
##ic
##지지
##시에
##시고
찾아
성장
인천
##이었다
국민을
##명을
활동
##민주
##대를
##대표
매우
가운데
않는다
##간다
##정한
##가리
나라를
##장관
위해서
4월
더불어
토착
니들이
위치
##이상
처벌
##났다
이전
이것
보다
의원
외교
강화
에서
라는
##대는
황교
##너지
##려면
얘기
##식을
말을
사랑
##하겠
##is
아니면
3월
##지않
적폐
결혼
##의를
##때문에
##은행
##부는
##단체
사과
##식이
##기고
##스의
26
사라
자동
이거
198
안되
이날
선택
다니
계약
구성
##개월
##대한
문화
##스는
어린
27
대단
공무원
##어라
독재
대통령이
##보니
##BS
##대에
해서
불법
##당은
중앙
거짓말
##하였
조금
##던데
전라도
우리가
##pan
##하겠다
##대통령
28
공사
##대체
##므로
새로운
수출
너희
관계자는
##th
서로
조성
으로
##수도
세월호
60
강남
##아라
##한데
##내고
개선
제공
##난다
때문이다
하락
마련
##금을
이는
##식으로
안보
##이지만
공공
대해서
정부는
##히려
노동
##럼프
나왔
##나는
6월
원래
##관리
무조건
준비
##지막
바이
대체
##센터
분석
##안을
##지에
시키
광주
주요
오히려
능력
##리면
##지구
##nd
있지만
도대체
못하고
##제를
우선
드러
12월
##가를
##으면서
많다
생활
전세
지속
##비스
비판
코스
##사의
9월
10월
##권을
제외
그걸
##발전
공동
사망
대비
다양
하다
##이를
집단
되었
걱정
29
##회를
트럼프
따른
##ion
##드시
7월
또는
밝혀
##건데
##받고
고려
아니냐
##해주
확실
5월
지켜
스스로
확보
##ㅋㅋㅋ
현장
만큼
##연구
확대
31
친구
아님
마지막
##하세요
##일이
모르는
대신
##ing
다만
##려라
감사
그대로
##겠냐
시설
나가
자체
입국
대책
나서
달창
어찌
의견
지들
아무리
기관
다르
어쩌
이명
##왜구
이젠
##라면
밖에
비슷
##개혁
##놈들
##기술
부정
도움
##회의
##이스
경영
응원
##것들
먹고
검사
출신
##도는
##만큼
인해
##점을
각각
증거
##릭터
서민
부족
##re
못하는
위험
##려서
##장의
1월
8월
##om
##치가
##정책
되고
##화가
거래
적극
의료
##ac
##건가
단지
행정
##더라도
민간
선수
제일
##국가
예정이다
교통
시행
##했다고
최소
머리
##우는
##것이다
무엇
##다면
##20
특별
무시
##지말고
나경
##대의
##이버
##이자
개혁
지적
st
그동안
법무
불가
캐릭터
사람은
중소
##겠지만
일단
오는
감소
운동
##프로
##지면
본인
사는
받은
##과의
우려
역할
이명박
##계획
시즌
나도
전투
##명의
건물
롯데
##거야
SK
더욱
있다고
전혀
나쁜
이동
이야기
가서
가진
##50
일이
대형
권력
반드시
2월
전용
하여
##트를
##지원
##할수
##관계
입장
11월
##는거지
투표
인물
수요
##ig
정도로
##스코
대응
000
##자인
제2
플레이
보호
비롯
##선을
공식
진보
맞는
제1
한편
##세먼
아버
강력
##아먹
자리
의혹
하면서
촛불
이래
##원에
이루
1년
만나
예산
스타
##끼리
관광
##리즈
##기사
모습을
##환경
##교육
##리스
있도록
토착왜구
2년
##el
임대
않았다
도로
진실
##이기
##했습니다
##들고
보는
실시
설계
##규모
##am
대우
70
##심히
윤석
##해야지
유럽
##부가
##것을
황교안
활용
00
문죄
분야
가까
시스템
노력
소비
##을때
참고
##제가
종교
##이터
보니
##아요
입주
국토
##어가
##어난
##부를
##했지만
##건지
기레기
##오는
##었는데
혼자
통합
##일에
바뀌
NO
##전을
당장
제주
목표
평화
안되는
독립
##들만
나이
있으면
평균
논란
그의
교수
젊은
##수처
##만에
##생각
제작
##인트
판매
지지율
당연히
어렵
##등학교
of
토론
다양한
나오는
##우고
니네
아들
기억
##내는
필요한
##리트
있다는
저렇게
달리
비해
##ed
기간
인사
##른다
경기도
영업
바람
지랄
러시아
보유
##한국
주인
그때
##서를
##마트
등에
노무
##il
##회사
##란다
가는
##해보
처리
##만이
##자들은
그림
col
의해
##봐야
심각
##장에
##것은
않을
##그램
##으로는
갖고
있지
가져
전기
##사일
안타
선정
##학생
##투자
미세먼
강조
수도권
일베
카드
열심히
알아
방문
최저
라이
##국의
공정
매출
인생
글로
##생활
청약
실제로
업체
부끄
##인간
가지
언급
일을
##조선
정부의
##단지
두고
##공항
##10
##분기
##두고
##이라면
알바
##교통
살인
일본이
연결
##선거
충분
표현
거기
##라서
부담
지키
정확
3년
제품
아마
그나
있어서
업무
보도
##전자
##위에
조직
잡아
ㅠㅠ
중국인
LG
##러스
사람들은
##원의
중요한
받을
##도의
반면
ㅡㅡ
없었
정당
안정
친일파
들어가
##하다고
##수의
양심
없애
197
집중
the
실제
##한다는
최초
시절
##번째
등으로
자동차
##ST
전략
마이
##스타
##평가
##로남
도와
자체가
문재인이
분명
하자
경험
80
유치
##이익
##시키고
임명
202
조용
##할때
전에
대기업
##수록
##yle
항상
##와의
나온다
이나라
##량이
공수처
##비를
##로남불
##사회
##ow
자연
회복
기다
돈을
검토
##신도시
도입
인권
같은데
소속
집값
네이버
나와
##하거나
있던
작품
이재
계획이다
각종
인구
가능성이
##et
신경
##사고
##물을
##달러
##국이
최종
##음을
감독
##조작
지구
건강
사태
##보는
치료
과정
있으니
고용
##분양
##기의
수익
이하
노무현
지금은
##라인
더러운
전문가
건축
아시아
##과는
여행
##까요
독일
##세가
끌어
대출
##ent
##마디
변호
난리
불쌍
##준다
##증권
솔직
받는
##시가
아는
이라며
##이드
있나
아예
##간에
style
##세대
##했을
가만
자격
들고
##지게
우리는
##워서
원전
##려야
2015년
애들
무식
##임을
차지
##트남
않다
##나고
##30
시켜
어디서
##리의
신고
프랑
##시킨
##나서
국정
매국
글로벌
##장으로
공부
##랍니다
민주주의
##df
장기
말도
##라리
##BC
배우
##듯이
외국인
##로부터
마찬
변경
이기
하며
##반기
대전
##차피
2018년
내부
오래
이뤄
2017년
##어버
시험
연합
나올
오른
##국에
무서
핵심
정신차
##수로
되지
바보
직원
참석
우한
##이들
2010년
10년
##점이
멍청
지도
행복
보이
진출
했는데
시리즈
##아가
##리기
않아
##라마
여기서
움직
2차
발언
##성은
35
여전
##원에서
유시민
거지
유명
있네
어차피
##한게
2016년
##냐고
협력
수주
작업
남북
교회
##갔다
##방송
##리로
32
되면
사형
##이팅
##18
##문제
제시
1일
통일
월급
반일
##정신
싫어
기회
##던가
##이로
생각이
나경원
감염
엄마
베트남
은행
일자리
500
모델
##건축
##거래
타이
##수준
##하기도
다들
이유가
##이션
##문을
##계를
##자기
##금지
이익
자신이
비용
본격
##st
궁금
역대
국민들은
받았
##하라고
주는
사퇴
##거든
##위로
마찬가지
한국당
쓰고
##바리
위원
요청
##소를
노조
시공
있게
아래
프로젝
이러한
자랑
##으로서
##만한
##져야
팩트
##나오
##구역
쓰는
됐다
자료
##여서
틀딱
하는거
까지
대선
차량
조국이
대한민국의
힘을
##는거야
인도
##것들이
##들에
훨씬
열린
평생
2014년
2012년
상관
##나가
##장에서
##개의
##되면서
하늘
##나게
##분이
국방
##됩니다
##사로
##19
실패
##정보
자주
의심
재산
없을
아프
안된다
설립
##사건
인근
##겠습니다
장난
##조차
한다고
내로남불
철저
##dfas
신규
사회주의
뻔뻔
구축
##으니까
##감을
##라지
인수
##자들의
에너지
##르게
##어야지
사법
대통령은
##하기로
울산
승리
자살
주식
그나마
박정
모르고
##겠다고
문제는
span
##해요
불구
제한
진심
사실상
##비가
##위가
보통
줄어
괜찮
300
비난
##이에
청년
일본은
##호선
##림픽
지금까지
싶다
##고있
지정
부탁
제조
##어진
그녀
말하는
그럴
단체
##왔다
차라리
##적을
정치인
프로그램
##어를
무기
##드를
인터넷
분위
의사
통과
2013년
공산주의
간첩
##당한
##님이
나중에
신청
포기
##많은
##습니까
모양
인간이
문빠
기능
유일
노래
단순
윤석열
##시키는
규모의
쉽게
규제
당선
주거
##대가리
인터뷰
민족
미사일
이걸
돼지
오후
확진
불안
##속도로
희망
##지마라
불매
##법을
##아닌
마라
90
공산당
있기
##지어
##겁니다
##계가
이제는
그러니
##시대
너네
##구요
##보네
수입
이라는
늘어
##에만
사람을
단독
프리
가능한
없었다
그룹
경우가
하기
남편
회장
포스코
만드는
합의
##dfasdfas
2011년
##든지
싶은
##억원을
출연
정은
##거라
바꾸
안하고
##바로
금지
종목
대변
196
영향을
최악
가능하다
보기
##상에
##하려
정신병
##물이
##군요
##가요
서비스
짱깨
##리카
좋다
나머
애초
##분에
##공업
wid
상당히
분노
##같다
일제
##구조
솔직히
야당
이와
width
주고
##시오
##했으며
##활동
소득
방향
완전히
##노총
2008년
하네
##보자
##수있
스킬
##부에
조선일보
##0년대
미국의
세종
높아
##기지
알았
현지
작은
많아
끝까지
##아치
개소리
##업자
##하도록
##로서
##하려고
검찰개혁
계열
한마디
2019년
재판
지급
##건설은
목숨
##시길
##져서
특수
##량을
##도에
발견
달라
연예
##였던
동시에
조합
놓고
반성
남아
일으
##안이
해야지
지상
사장
물어
누군
자꾸
제목
설명했다
##었던
봐라
일본의
##이어
##ㅡㅡ
차단
보여주
36
##격을
아닙
##부의
신뢰
##률이
##에서의
##약을
2009년
태양
33
인간들
##씨는
영국
고통
담당
투입
만약
군대
개최
돈이
##위는
##율이
고생
##사에
뭐냐
여전히
놈들
##정에
##ec
##원으로
스트
종북
필요하다
형태
조건
##받는
있냐
##었고
##져라
##문화
##일을
기반
수가
부터
주인공
군사
몰아
45
프레
##거냐
향후
조선족
##자와
법무부
기부
심판
문서
##성에
##순실
TV
그것도
##체를
KBS
그건
박정희
##지의
1만
##지마
판결
주로
본다
##줘야
중소기업
살고
업종
레이
##op
가짜뉴스
5년
힘든
입니다
##차를
중심으로
지가
오전
##우스
##없고
프로젝트
영상
반도
저지
해주
##말이
동일
##온다
##감이
##ad
in
만들고
방어
남자가
##소년
생각하는
연기
바랍니다
전환
##립니다
어려운
##주가
중단
없는데
자금
따라서
##먹는
##지요
##는거다
##프트
##이도
생긴
##프라
일어나
##나면
불러
##가족
할머니
##기간
##자고
##어로
갑자기
국민은
##임금
##느냐
앞서
이유는
제기
##력은
##쳤다
##40
바라
##부로
그거
아냐
그저
이사
미세먼지
있음
##성과
저는
사업을
##냈다
좋겠다
##자나
사무
##집단
##ot
##수사
이다
감옥
##말로
북한이
니들은
38
없음
반영
불과
면서
미국이
달러
역할을
말씀
타고
##계에
확정
강제
태극
폐지
##정치
##인들이
불가능
공장
보상
1000
##아파트
##으로써
##경기
올랐
애국
적이
맨날
##보다는
똑같은
그랬
생각해
##들한테
##놈이
투기
한심한
때는
벌어
어쩔
두산
돌아가
과학
믿고
심지어
##디어
수행
재건축
##군이
사례
죽은
##간의
가면
이때
##디오
##드가
##구를
따로
##만명
너는
온갖
##화에
대규모
지들이
반응
대가리
##성장
선진
올려
시간이
##안에
바꿔
활성
화이팅
##반도
문재인은
한국의
##물의
##소득
비리
바닥
광고
생겼
##받아
최순실
KST
눈치
개념
##깝다
하는게
혜택
취급
보이는
##시의
지분
자유한국
본인이
##씨가
##신문
받았다
##받은
하니
##상도
##질이
중이다
마법
연속
비슷한
이번에
##ir
##리한
성과
느낌
말은
##면적
##바이
01
유니
근거
파괴
무섭
##대학
##행을
##놓은
##던지
봐도
의한
특징
이유로
근로
매각
악마
자본
고민
아닐
전화
싸움
34
##부대
광화
참가
##ur
##원도
검찰이
없다고
진정
GS
체결
희생
서울대
없어서
마을
##리오
저러
84
기생
##히는
##선이
##롭게
드라마
이란
##TV
방침
##명은
매국노
위안
만에
어이
없네
##되며
억울
##리게
##상의
과연
##리어
낮은
처럼
철도
##사와
##가격
경남
공감
이중
##만을
##상은
상대로
##야한다
##대책
##피스
피해자
당신이
주목
##겠다는
공간
##봐도
2007년
초기
##심을
가정
지하철
모자
스마트
##때는
뭔가
근무
##데이
##인으로
그러면
##단을
이끌
초반
##세로
중국에
없습니다
청원
남의
불구하고
이해가
##us
사실을
이상의
무너
하이
졸업
프랑스
동네
애니
문통
제가
##심이
중인
##했으면
##범죄
##느라
제출
##군의
혐의
아니라고
##일부터
##결과
##제에
애초에
대해서는
##크리트
유튜
##기준
##시켰
주둥
##문이
##적이고
느끼
##단이
거리
이슈
못할
답답
하냐
피해를
의무
##구가
##가지고
개정
##im
진정한
개판
주사
위에
1조
시청
##인거
상황이
브랜드
##더만
##레스
##em
자영
생각을
여당
##자도
##장과
취업
인한
관한
##관이
color
아닌데
문제를
##개를
파악
똑같이
##상으로
중에
상황에서
돌려
##하는건
대가
택시
점점
경북
##위해
37
##사람이
판사
중국이
쪽바리
##크로
##질을
##주면
3일
더이상
시점
있어야
##무리
##했다는
점검
##기만
했던
운전
고소
듣고
알아서
##분들
52
59
##싶다
접근
수상
자빠
기획
빠져
##쓰고
지금도
##하다가
스토
힘내
##스러운
잘못된
작년
조정
너도
약속
뛰어
##하는지
이상한
집회
한나라
##는거냐
##11
문죄인
##두환
이루어
말로
##단계
수준이
##od
지난달
##가면
##자에
정작
수십
집에
코스피
선생
순간
##중이
기타
것들이
##세력
##등급
건설사
##함을
매일
혹은
멤버
##00만원
음악
부르
##주로
##ch
가만히
##주를
##역을
높다
194
##지니
직업
아무것도
이럴
과정에서
깨끗
기준으로
이리
우승
##들이다
장면
아버지
보이고
##와는
한국인
항공
##문회
거부
##이의
엄청난
대상으로
##인줄
충분히
영웅
##달라고
슈퍼
##독교
하시
##하러
##드로
우파
물러
##ation
우수
축구
한국은
사상
가르
##소가
그렇지
논의
있는지
실적
더럽
39
무능한
##까지는
##에요
##ay
##전이
가라
행사
##상태
##자에게
##iv
리그
##하려는
재정
집권
건설업
상위
여기에
북한에
기록했다
##아버
시대
##리자
페미
##해야한다
벌써
번째
세금으로
도망
구간
거쳐
하게
##학과
##공자
##슬람
기여
##잡고
##트로
1위
기초
##60
##시스
##건설이
소설
##시티
and
##금융
통한
##별로
응원합니다
다행
전자
방사
대화
##계의
홍보
전두환
상식
이용해
일본에
##금이
##un
것입니다
##라스
##차가
##하지말고
몰랐
나머지
사전
##가락
헌법
사기꾼
버스
55
##걸로
소유
소환
##상황
##스럽다
빼고
입은
전년
##수수
48
논리
병원
올림픽
태극기
강한
조용히
##소에
##타운
추정
##만으로
인민
##한다면
똑같
추천
##대상
물건
##주시
##협회
##성도
##누리
##잖아요
것이라고
특정
늘어나
맞아
195
##제품
하나도
이들
대중
않으면
##하니까
강력한
대놓고
노인
##권이
양아치
조심
The
눈에
게다가
##비는
##드의
##합시다
##버스
##안전
이탈
##진이
##미터
구매
##는가
##트가
##하네요
동원
강조했다
##신이
콘크리트
마감
##철도
차별
ㅉㅉㅉ
것들
참고로
레벨
한화
##인가요
##가의
##할까
42
법을
최고의
못하게
1차
필요가
어머니
##시를
최저임금
갈등
전망이다
일어
##겹다
장애
사회적
발매
##진핑
홍콩
##돌아
고객
아닙니다
제3
가슴
##리그
매수
##일은
##히고
##ag
##보험
성격
소재
예전
사이비
4대
##신을
##공개
하세요
아나
99
2006년
위선
됩니다
##라가
구분
##대학교
노선
등은
##비용
##있네
음식
중국의
명예
비행
##선동
주도
##있고
##률을
했지만
좋아하는
##민주주의
##했으나
##아야지
##료를
해석
자세
밀어
##기와
헛소리
##당히
1억
##당에
것에
##영상
##시킬
원자
ㅎㅎㅎ
마치
##복을
##um
방식
별로
##다운
##이라니
구체
위협
2020년
서울시
복지
찬성
##곳에
##년이
##으려고
검찰은
죽을
##받을
덕분에
##중공업
##화된
##그네
##연합
자기가
영원
미리
##ut
굳이
가해
정치적
광화문
##os
없으면
나무
##그러
경제가
불편
달성
못해
##km
##금으로
개통
##제한
이름을
등등
비례
정리
뽑아
인상
손해
##자체
여자가
앞에서
##산을
기가
##총장
##력으로
남한
유저
41
연장
한국이
느그
##시스템
##회담
47
##방에
채용
49
##단다
새로
##놈들이
MBC
통신
반도체
15일
토지
동물
할수
있었던
IT
##한건
연합뉴스
##운드
##리나
옹호
앞에
주사파
기계
월드
공항
##만의
##보내
##중동
떠나
##제도
##마저
##겠나
있다면
##당을
관심이
##었다고
##80
자녀
10일
##당의
가고
##ack
에이
확실히
관심을
75
원숭
##진을
호텔
없다는
아니지
배치
싸우
때려
##해주세요
기념
##움을
전달
대처
동의
##시마
3개
##비아
변화
##지기
남은
이벤
20일
나베
43
대통령님
##지말
한다는
##명으로
뒤집
##전에서
이정도
머니
안에
에휴
제안
시도
중국은
##지사
안철
##라니
##공단
달려
##에게는
자국민
성능
기생충
##하신
일은
##지면서
상품
미군
##실을
##재를
도움이
스페
다이
5일
##스럽게
당신은
천안
##회에
##그래
보험
##여행
시진핑
성폭
남성
##니스
반발
죽여
##span
##25
오르
##하다는
감정
44
##치로
영어
미통
65
원칙
##본부
유튜브
오피스
St
원하는
고발
하던
##겠죠
쏟아
##말을
##니아
##동을
내놓
##언론
##쪽으로
협박
마무리
##되기
순매
안나
##먹을
##전쟁
신문
대한민국을
##사람들
03
##oc
재미
##적이다
해체
절반
##아이
수는
개가
이놈
전반
나타났다
고위
##짜리
##경영
##보기
##겠네요
생각합니다
기사를
##머리
2일
설정
재앙이
작성
허용
우리의
케이
지배
완료
##폐렴
30일
지식
여러분
혹시
청문회
제도
##리스트
민노총
일정
등록
사람도
놈들이
그가
2005년
##쳐서
가입
겁니다
##악한
박원
고양
없지
책임을
되는데
들이
##파크
분양가
##사태
죄다
##리네
악플
##일까
##있는데
##검사
국개
바이러스
미안
바란다
전세계
확산
##량의
것이라는
한국에
선언
짱개
##기자
##금은
##조정
##사항
최소한
후에
민주당이
위안부
기독교
##포츠
##회에서
무역
##소리를
##먹은
##가라
##관을
54
나왔다
##순위
##졌네
블랙
김정
에라이
거주
##수요
점을
대다
비롯한
신도시
브라
굉장
특검
동맹
46
##로를
##보수
02
28일
수정
출시
##항공
4일
##고도
회의
동아
못했다
어제
결론
이민
준공
협의
증권
만드
##시험
##12
문재앙이
비상
왔다
바다
시위
아내
##ul
변호사
##플레이
자신을
아침
도둑
넘는
##원전
우주
김대
통계
나오고
잡고
##리며
부문
##줘라
취소
극우
이지
##없어
위반
생명
실험
##경찰
분열
짜증
나눠
그러니까
앉아
##세기
##부모
##려나
##고를
##치지
것과
유리
유통
##인과
##거고
##루킹
진중
내용을
14일
##처리
##음이
##ew
85
위치한
전력
보였다
##으로부터
맞다
전남
앵커
치매
##70
2000
아무도
내고
소개
25일
대한민국이
저게
장비
지지하는
7일
감안
##이든
##입니까
##ht
27일
뭐라
가구
##인듯
폭발
맞춰
##섰다
##공산
##투데이
##민주당
한반도
그래야
##석이
지옥
그것
철저히
충격
거기에
후반
##량은
운행
수많은
##단의
처음으로
##AM
##재가
##노동
##했네
포인트
적은
주의
##러워
##긴다
미국은
뒤에
##업을
##시로
국무
옛날
대통령의
사용하는
이들은
발사
부끄럽
##공원
나라는
놈이
제거
확장
왜구
##가능
##댓글
노예
인증
##복합
조중동
회장은
##마을
수밖에
대부분의
계산
##티브
##화학
##율은
바른
활성화
하지말고
소녀
북한의
다녀
훈련
한심하다
눈물
##짓을
##통신
교체
클럽
##드립니다
##회는
동남
나라의
##프레
우리도
알게
##성의
신용
골프
저질
자유한국당
빠른
실질
바탕
가까운
인간들이
않나
기소
##팔이
우리나라는
##페이지
인식
크다
라며
##좌파
150
##르지
##하더니
집안
이혼
현대차
완공
세력
##적은
공약
##였고
저거
민주당은
##000억원
상황을
이래서
##으므로
##이었던
어휴
##까봐
##이기도
11일
16일
58
하였다
##유가
공연
##본다
동생
##실이
애들이
##되는데
이시
좌좀
어린이
##스와
8일
둘러
##ㅎㅎ
26일
물고
##을텐데
그린
##15
유닛
반복
창출
집행
베이
##포인트
풀어
##빨갱
국가가
##쟁이
18일
##전문
##한것
##구로
##아도
태양광
온라인
사항
비싸
앞두고
##점으로
##ter
09
이딴
21일
매년
23일
##좋은
가치
##친다
들어서
KT
##께서
정책을
영업이익
이승
경우도
데미
한테
##자금
17일
먹는
##보단
##로지
22일
디지
이달
2004년
싫다
안된
05
예비
비정
9일
불매운동
위해서는
집에서
없으니
말한다
제정신
자산
24일
아이템
정권이
배경
##과학
12일
##거면
##00만
##국은
합리
##키로
##해진
전면
동양
##효과
19일
##정의
효율
충남
##중인
전통
생각하고
맞지
연간
의견을
##노조
정은이
의원은
중간
최악의
한미
채권
재개발
비롯해
제외한
검은
##하는것
##동이
주세요
몰려
##용이
##싶은
##따라
##호를
하는짓
##분을
와서
##시켜라
나쁘
##미향
존경
##았던
보자
항목
##연금
신설
##국제
단계
편의
##ct
들여
그만큼
##주기
김경
덧붙
많은데
13일
하반기
진입
##회견
##ER
똑바로
가야
##통합
##쓰레기
경우에는
##게임
문제인
아빠
##어리
##가야
이탈리아
문정부
##자동
##제는
받아야
##바닥
명의
말해
민주화
적당히
4년
##관광
장사
##함이
머니투데이
en
##았는데
6일
마약
복합
굉장히
내세
무식한
##구는
생기
29일
보장
것처럼
하는지
##스테
일자
이미지
패배
##로가
##조를
기업이
2개
간다
총리
##구리
떨어진
주차
##동에
착각
언제까지
##학년
성우
수용
ㅜㅜ
무죄
##ab
##트는
##OOO
국민들의
##투표
분류
소송
관련된
##있냐
##국을
아웃
혁신
모아
##하여야
##추고
광역
스테
##나간
##군은
유사
한달
실망
오피스텔
금호
##부문
고마
##달라
형성
##준표
##복지
##줌마
##하였고
##자들을
돈으로
##력과
않게
공시
##했냐
믿을
1인
##사무
직장
##었으면
56
##이크
##하셨
위기
윤미향
결과를
53
올리
차이가
##시절
##부와
무리
##시기
삭제
냄새
##었지만
이것이
시작했다
세상이
##법이
공유
나와서
##자유
멍청한
##들로
착공
느껴
명령
미개
##단은
나오면
인프라
##주민
리얼
##판에
생각한다
쓰러
검증
분리
봐야
꾸준
몰라
전국민
예상된다
받지
ㅈㄹ
##같은데
##액은
나라에서
물타
##률은
한일
국민들을
취임
##계약
##규직
검색
화장
물리
##했지
이러니
죽음
##위의
아닌가요
서초
##하고는
지금의
막말
무서운
이곳
##점은
##트의
재난
긍정
자원
##조원
전형
##공화
이외
비밀
조국은
살기
말아
아니야
##ap
알려졌다
부품
##민족
손혜
근처
주가
미쳐
중도
##미가
##예요
to
선보
드루킹
치고
김영
임금
04
좋지
##하길
##방을
방안
##ri
어렵다
방사능
매입
##미애
다음과
조치
##관련
쪽팔
신축
##없네
프레임
##한번
##대고
##점검
동영상
고맙
##사에서
##자식
폐기
부활
방역
참조
아르
표창
##관은
압박
##속에
있을까
입고
##님의
정밀
기자회견
2003년
특성
잘하고
##치기
부여
흔들
데려
##대비
전용면적
수원
도덕
홍준표
2만
위하여
al
시급
데뷔
##키는
세상에
사실이
미쳤
겨우
193
##특별
부패
가득
20대
##하이
심각한
2017
##있어
518
##당하고
한강
건립
인기
입국금지
##들이나
##ight
수치
다를
반대로
아름
구라
찍어
##겠어
방해
##수수색
07
개입
폭망
모두가
식으로
위키
적절
철수
기득
##서가
##도와
북한은
몬스터
편집
사용할
57
업계
살아라
완성
안타깝
동부
20년
##었나
범죄자
선동질
##석은
측면
오지
완화
리더
차례
##식에
도쿄
철강
발행
데이터
##퓨터
##조리
##력발전
SBS
감성
##병원
평등
들어오
##종의
##만도
다가
생존
##버린
나라냐
어른
##지와
모습이
생각하면
##화에서
대기
지능
정도의
##율을
##해양
배신
시각
##애들
##고가
앨범
디자인
김일
보이지
나누
가게
##하지마라
뉴시스
못한다
한국에서
시원
말한
거다
저기
##다는게
##개가
##ㅉㅉ
##국으로
그를
51
정경
##하지않
있으나
버티
##겠어요
##나다
##웠다
경우는
##들여
08
##회가
시기
빨아
방안을
##되었고
명단
수록
아프리카
##수에
##인들은
사이에
##ov
답이
출발
새누리
현대건설
##는데도
##면서도
흐름
##메이션
임기
답변
지자체
66
매도
썩은
출마
있어요
효과가
이런거
벗어나
##책임
##으려
##물에
최초로
##니깐
##어는
##버리고
통제
종료
##무를
교활
세워
안돼
쓰레기들
##자원
##셔서
지역의
거야
죽어
동료
##ers
포함한
##ce
##000만원
세대
상반기
##힌다
대한민국은
##워크
수백
##필요
##산화
정유
선발
증명
##장비
정치를
마찬가지로
전해
쩝쩝
구입
모른다
##차로
나라에
코로나19
화가
빨간
석유
압수수색
칭찬
##주지
드래
##부터는
소리를
##검찰
만족
##세계
우린
기분
메이
##호가
좀비
##시켜야
전염
외부
Ch
문정권
##주도
같습니다
##적으로는
진단
##재앙
보조
##소는
북괴
고정
##시면
공포
확진자
그들의
##님들
##겼다
##중앙
뇌물
살려
##자치
##형을
봅니다
하나로
일본을
##ia
06
##구에
##으라고
총장
내는
작용
문대통령
일대
##유의
##권에
근본
법무부장관
##ㅠㅠ
꼴통
한정
##에너지
맞고
연계
입만
미분양
뇌가
대표는
##쓰는
부실
입찰
예를
바탕으로
저도
적어도
대북
측정
상업
매매
손을
##였는데
##보지
##역이
부인
##너스
##조가
시간을
수립
64
웃기
##공간
##IC
저희
##권의
중동
뿐이다
##거리는
격리
##일본
먹을
돈벌
명칭
##능력
자유민주주의
정비
조국을
힘이
빠르게
4개
법이
##구먼
##사업을
강간
대단한
이성
##직원
##산이
성폭행
한명
##NG
코스닥
축하
뽑은
능력이
자존
##있나
나선
##그리
고급
포항
사람의
살펴
다니는
##임대
밝히
##gr
대폭
##마자
없나
##고속도로
마세요
##and
##억원으로
뉴욕
##세는
##ak
자영업
청구
징역
##서에
##공장
##야말로
##기들
##하에
##전은
##감정
정의당
##종합
##낸다
청소년
정부에서
ㅅㅂ
받는다
##든가
열어
똑똑
##었습니다
말이다
##회장
##독재
친환경
##르기
꼬라지
##억달러
뭔지
혼란
##트리
##av
보스
##전의
##협력
##연구원
왜이
그들은
봉사
테러
##블록
이념
입장을
##정부가
##봤다
In
대법
제조업
배달
##대출
전했다
가스
아가리
##판을
충청
너같은
##모델
복귀
규정
씨부
챙겨
했다고
없지만
참으로
하긴
##피해
컴퓨터
부대
말에
않을까
스포츠
문제다
훌륭
나아
오랜
상황에
##었을
둘다
자가
##보를
##할듯
상장
##하긴
##치면
여름
일부러
이것도
효과를
누굴
목사
경상
지휘
지원을
##리와
##부지
2002년
##인도
##억원의
최대한
##했나
당초
촬영
##가스
이만
얻어
폭행
##용으로
조만
63
정체
##선의
##공급
##사람은
##90
##세다
용인
남탓
균열
한번도
않습니다
##차는
애니메이션
관련해
지적했다
##되서
투명
화학
어이가
해양
홈페이지
하야
구역
감싸
상처
원작
세금을
글을
##일뿐
뭐라고
반박
탈출
##영화
4대강
##격이
획득
삼성전자
이낙
95
400
자리를
##군을
##all
ST
민생
주장했다
한국을
유일한
##향이
법률
저리
짓을
믿는
대사
나오지
후손
방식으로
생각은
재벌
어리
두려
죄를
##한지
해소
잠시
이야기를
여론조사
정보를
일하는
##우리
##치게
전날
넘게
5개
서비
왜곡
정상적인
아니지만
우한폐렴
대표적인
당연한
임시
재료
##분야
##때도
수준의
##되어야
또다
갖다
이로
발악
존나
운운
##16
갔다
방침이다
전라
중국에서
그렇다고
완벽
죄가
기업의
편이다
##았고
수준으로
##카이
김대중
오로지
아이가
##웨이
지역에
아무런
##구석
크리스
##제의
비핵
주문
음주
그에
부진
김성
##진짜
질문
지껄
야구
소통
주말
##권은
보강
##인에
상대적으로
소방
##보호
가까이
##이사
내일
준다
##십니다
공천
그것이
##했는지
많고
##할거
##위기
지시
진실을
메르
##세상
있었는데
막아
전시
목소리
##여자
새끼들
말아먹
나름
폐쇄
호남
계획을
##을듯
##ist
##새끼들
##나와
##아닌가
경찰이
입학
했고
김종
분위기
어울
##소에서
모여
예측
친중
##레이드
##광역
감사합니다
180
싶어
불리
유공자
같아
##실에서
안철수
##이라서
무지
##해봐라
##세에
##후보
대로
##학의
##만은
##래도
고속도로
##ound
긴급
하겠다
##테니
##무시
안가
선진국
오브
무료
##조합
##미널
##한테는
##길래
마음이
##돈으로
##경을
추미애
##천지
끌고
자기들
허위
단식
시가
카메
##24
##dfasdfasdfasdfas
물타기
##답게
말만
가로
특혜
소년
일도
유도
괴롭
삶은
##ES
한나라당
##것들은
걸려
극복
비중
##우면
해명
##님은
모른
주력
우리나라가
발주
너무나
##십시오
담배
답이다
문씨
##생산
2018
##저리
공공기관
논란이
##화로
평소
##르크
##ine
옆에
휴대
후쿠
##자산
생겨
##수한
간단
가동
##비로
내용이
##분의
박원순
##물고
##타령
하지마라
종류
올랐다
##구의
개그
동반
실업
권한
자한당은
점에서
정권을
금액
##스런
남녀
식민
끝나
##중한
추가로
연락
좋다고
##형이
산다
얻을
가격이
파이
재무
##니티
등급
상한
어떠
30년
##소시
##해주는
목적
아줌마
그들이
##mm
##전거
2000년
삼성물
##오고
초대
강원
##쪽에
##재판
##리다
74
##14
##석을
##서비스
법적
안내
한겨
##매매
정부와
##CD
상징
정권의
##정부는
사장은
##때문
가끔
이득
이낙연
지속적으로
했으면
이제와서
우습
대통
그렇다
##서관
비싼
데리고
어째
곳에
걸어
##경이
괜히
##안하고
##13
##어의
도착
조만간
##시요
##해지
##의도
덧붙였다
길이
축소
군인
##의가
많네
##것같
##파이
협상
이벤트
##운전
대통령을
박사
120
##향을
##하시는
##버리
또라이
팔아
##법은
영원히
거기서
난다
정신나간
공직
192
##자들에게
소형
##품을
##ro
자한당이
뿐만
##떨어
길을
혐오
하도
표준
열고
##물로
국가의
유승
힘들다
때까지
##하려면
적극적으로
몇몇
직후
지어
##있으면
62
집을
row
com
마누
고유
공중
이스
갈수록
##자이
건설을
수구
만들어서
포장
붕괴
72
##벌레
현재는
##임이
부채
무려
##있게
##요일
LH
##사인
##가며
##마이
기술을
##주에
##리라
현금
보건
실현
살해
##재로
##란드
##차례
##면을
6개월
##bs
도심
##하겠지
##텐츠
나갈
vs
구청
활약
파워
##아웃
곳이
등도
합시다
##아니라
하나의
##에서만
된다고
##라의
아이들
##리티
수석
능력을
OOO들
벌레
##가구를
주변에
##없음
양산
##선에
국립
시장이
##줘서
##하우
다르게
##터리
규모로
67
힘들어
키워
##지방
있는거
대하여
끌어내
##개로
##가와
인공
죽창
##정당
에피
타령
벌금
보여주는
##했기
도전
##점에서
연봉
사람들을
경고
공격을
걸린
힘내세요
모집
붙어
방탄
##면에
##사이
모를
##때까지
무장
함부로
가수
공짜
한두
다르다
##대교
히로
68
##행정
공화
나타나
대우건설
저렴
활동을
##안은
없냐
유명한
처음부터
네가
##피언
보복
##ang
호구
##운영
##경쟁
아이돌
의료진
당하고
베네
알지
해주세요
##일로
##선은
촉구
폭력
외관
##모양
측은
의도
박살
김포
내수
테마
##AT
76
플랜
##ath
차이
일관
##나이
##총리
공사를
##정도로
이름이
위로
31일
설득
오픈
조기
##만들
##앞에
##전략
이해찬
대깨문들
모조리
##지나
##었네
꾸준히
##ev
갖춘
절대로
기도
오직
##북도
##드리
오염
##대응
##함에
2016
##서야
##음에도
겨울
아시
다름
늙은
하라
기자가
부지
죽이
보지
##방이
자빠졌네
발동
##스에
몇년
압도
BE
##내서
사업에
##말은
대회
뭐하는
##협의
##법에
##니가
##차별
자전거
머리가
##이들이
품질
기회를
##선수
저항
이웃
장악
하라고
##아는
##당과
모르겠다
물류
##치의
인류
##상공
짐승
##어준
끝난
분명히
내린
이것은
##비에
마음을
사업이
역겨
##99
지진
대단하다
결과가
총선에서
##ef
때도
안될
은퇴
이자
경제는
##단에
것이고
##ign
떨어져
다시는
디지털
미국과
##기기
##으론
언젠
날아
부모가
줄어들
크로
##보다도
대답
##해서는
무한
연예인
##카드
문슬람
선전
용서
##직을
진중권
쉴드
국민에게
##보증
분들
멀쩡
ㅂㅅ
높이
외치
유동
맞추
원인
SO
대박
평범
##신도
##되었으며
내구
여야
##아니냐
추종
기울
##장도
공기
의식
단기
##소리가
##멘트
녹색
IP
육성
법정
##바라
노후
##계는
발표한
경제를
취득
##시켰다
시민단체
##버렸
의미가
##주년
진영
속도
77
떨어지는
회원
연출
원내
대학교
아쉬
이름으로
한남
패턴
대림
눈이
빼앗
##화의
##민이
##법인
73
개편
이내
개성
3만
중대
등장하는
##출신
도움을
##모를
몰라도
운용
##건이
공무
있어도
채널
대변인
일상
1개
##클로
탄생
동남아
##대회
추락
출산
유입
전원
표시
##라우
끝내
평가를
들어간
걸쳐
전교
북미
커뮤
##하라는
##건을
##지에서
세상을
내에
필리
##땜에
##아니고
##자료
에피소
감시
새벽
폭탄
받게
##참에
##점에
##감독
##잡아
안다
##스티
선호
용산
##었지
88
해군
버리고
발생한
정확한
세뇌
작가
##주인
##소로
고대
부부
##셔야
##졌고
드래곤
##ong
돌파
1도
번역
##ex
찬양
##리면서
##사랑
##ont
연금
##넘들
##화는
그지
갑질
로봇
##거운
5천
##이라며
욕을
막을
살아남
타입
언론이
철거
작중
##력도
##발이
##17
이겨
급등
##청산
##ate
속에
중에서
고작
##좋아
문제로
##별로는
정확히
주제에
##사기
##이던
애플
##빠진
실행
놀고
##위한
등신
설비
노출
이용한
말할
교사
##og
교량
하려고
##가에
계약을
##세의
한거
##해줄
등과
목표로
신기
손혜원
뒤로
영혼
센터
미래를
관광객
##부장관
창원
바람에
##ity
시나
권력을
누구나
고속
물량
##등학생
##한거지
##어링
이나
많아서
##표를
th
그런거
대만
약간
##곳에서
좌우
소름
##놈의
##테크
내다
아베가
죄송
##동생
그것을
수사를
챔피언
않도록
라인
유치원
##시즌
최강
##일러
이만희
가난
방영
있었고
한글
내용은
##리도
##사실
필수
예수
국민들에게
낫다
다루
##지수
상태에서
##법으로
##자동차
끝에
이전에
##있지
자리에
환영
돈은
행동을
연구원은
강원도
아울
키우
##인물
역사를
들어가는
등에서
미치
워낙
투자를
예술
##구청
##아나
악화
##ess
##라를
김정은이
##해주고
장학
##길을
##력에
뭔데
그렇고
양반
##아냐
기존의
인간의
본인의
부끄러운
스피
##는다고
1회
정권은
무시하고
감방
##입국
##시와
##하였으며
##명에
##ED
##저기
고등학교
안하는
어떻게든
첨단
##행위
##중심
##뿐만
아우
##프를
달고
자위
##체의
1번
짓거리
만한
시장은
연말
2019
##잘못
개돼지들
시작한
들은
뒤집어
##로의
회장이
##하지도
연애
강요
않지만
타격
이재명
##케팅
문을
손상
미국에
이용할
철근
어느정도
삼성물산
동참
##오면
대학생
원숭이
##art
점이
수술
때마다
조사를
##자본
입을
##평형
4분기
뛰어난
일이다
로마
집어
송도
정부에
##모가
##NS
상호
성남
홍어
큰일
연방
##망이
유일하게
당사
현재의
정신병자
올린
##놈은
당신의
98
##est
##라며
##놈들은
죽이고
##여야
상당한
제주도
수천
2001년
프리미
##이즈
해제
평양
국토교통
##겠는데
##전으로
수호
논문
##반대
중국과
서서
이참에
그러면서
뭐하냐
거듭
있는게
##남도
더블
기득권
마스터
카페
이들이
##는구나
안타까
##건가요
##해를
##석희
일본과
평택
수요가
##으세요
가자
##if
한겨레
속에서
##라시
69
당당
불쌍한
##하의
##해놓고
##함으로써
82
##았네
해봐라
##럽다
개방
없어요
##스토
옮겨
하다가
##보세요
##대한민국
3대
단순히
##그릇
##연히
욕하는
파업
죽일
틀린
점령
출전
상태로
하여간
순위
두번
기아
재수
##하는거지
##에게도
##었냐
##으신
둘이
##집회
동성
맘대로
소련
사건을
공작
##이네요
양도
예배
##정으로
##년간
즉시
##기나
반대하는
##내용
##교수
손가락
너의
3차
뭐야
문가
저녁
쯧쯧
낮아
곳은
입에
##거리가
##지다
##해가
##재생
흘러
체포
출범
기사가
앞으로도
##가로
태어나
뜻을
미통당
##성으로
역겹다
##사람들이
하수
판교
##미를
##CC
나불
사유
##식의
시장에
적을
부분이
##리냐
왼쪽
78
생태
메인
강하게
##대에서
단속
조달
##동의
보면서
##외로
##ep
2015
지네
##트워크
했습니다
##나보네
##렀다
사드
##재산
##은거
공통
성추
일방
##으로만
청산
털어
작곡
##할것
##화점
전형적인
방법을
창피
##와라
##있음
제재
올바
##아리
잠재
셈이다
했을
##꼴통
##론을
바라는
##TA
##까지도
보낸
넘겨
차기
##처벌
멀리
##식은
고향
김태
##000만
for
인지
##보로
충성
개인의
물가
##다니는
##국에서
귀족
이후로
건설업체
이익을
##명한
사건이
김현
명확
##세금
오리
##마리
##쓴다
어려워
승인
##하는구나
600
인접
초딩
##죄로
되냐
##크를
후회
강경
이주
인력
너가
민심
되는거
##리는데
위조
후원
어지
##물은
##시지
##선에서
법무장관
영입
맞게
##워라
발표했다
사죄
전북
##많이
초과
공기업
합병
하더니
쓸데
바이오
빠진
팔아먹
파티
보수가
행위
아까
##님을
당한
고집
보증
##겠니
##통수
성적
##목을
장관은
핑계
쉽지
##시장이
##곳이
##방향
이상이
##되냐
상황이다
##빨리
지내
상태평가
내에서
된다는
와이
##과정
끌려
최우
퇴출
수급
침체
부족한
##48
청소
목적으로
김진
##겠습니까
##나무
화성
##바람
훼손
시장의
경제적
쓰지
실천
속이
허가
83
분이
이순
##션을
##사진
##행이
##쳐먹
여기저기
앞장
##치에
조종
##ill
##후에
버닝
##스케
아동
##자연
97
일본으로
스토리
##았으면
##위원장
##번에
말라
인재
옳은
##하시고
김해
##익을
단일
매달
배출
신속
##서의
회담
경상도
부추
30대
86
##가구가
##하고자
##our
국개의원
배려
##ore
주지
한마디로
아들이
##느니
욕먹
신상
아닌지
투쟁
##박이
스마트폰
추측
삼성전
만들었다
##스탄
차원에서
##저히
SC
잘한다
형사
back
애들은
잘하는
##되나
##류를
아울러
##봤자
##레인
대책을
석탄
문재인과
마시고
건너
싱글
##타를
##비리
##AD
피의
블루
확률
이른
시끄
##타고
##ip
신도
##우가
정신이
2014
천벌
바뀐
우려가
눈을
##서도
##다리
##버려
넘어가
월드컵
조롱
에어
##꺼다
##에겐
설마
##빨갱이
근접
##모로
##야마
##공격
일본에서
체력
##소미
외에도
원자력
##에다
아스
이쯤
##봐요
##인사
경계
기본적으로
지연
취재
교수는
##호는
같아요
금강
##보이
신분
클래
##쪽은
개학
가지가
후속
여담
추방
밝힌
정수
방법이
##토록
경기가
갈아
힘들게
저딴
대한민국에
국가를
하셨
##등을
못하면
##단으로
남을
##드라
##하우스
##NI
수준이다
탈원전
부처
부정선거
영구
부과
##패스
공략
파견
주둥이
그려
##자체가
사우
요새
##ㅜㅜ
파트
달창들
적자
비례대표
진심으로
최초의
너나
체육
황교활
방위
##소의
##통일
통해서
걸로
##할지
이적
들어갈
트위
외에
법인
2층
CJ
##선으로
##했어
##싸움
##22
##주일
향해
##친구
좌빨들
유출
##ra
범위
수수
존중
선물
IM
가리
##짓거리
##타임
##되게
기어
태풍
태어
정치적으로
##펀드
2배
중립
##을까요
개별
죽인
해산
190
나라꼴
뒤에서
##무기
사이트
장착
colspan
마인
보급
자세한
이분
##미는
기사는
사냥
제국
의문
##즈아
건설교통
항의
만만
그리스
##부에서
세종시
##형으로
있었지만
변신
추경
풍부
주한
아시아경제
커뮤니티
변명
##그만
자극
사람들의
##조의
##ue
빨갱이들
되기
##백과
부재
##잡이
##미디
##라운드
혐의로
김제
##예산
아이들이
##나온다
있나요
임대주택
더불어민주당
이번엔
충북
96
좌파들
단어
##드러
의원이
드디어
정기
자치
이유를
사업은
##사도
쇼핑
##소시엄
알려져
##상승
탈북
하였
##하자는
개나
이길
등장한다
만난
학원
##중이다
후진
미국에서
##수석
전광
부사
##교회
사람들도
금리
뿌리
때가
전파
##ell
##그룹은
늘어난
의존
손에
미래가
아깝다
진상
시내
하지말
실수
하는구나
뜯어
##언을
##인민
자본주의
##고한
외환
##라라
##하지마
말하고
##ard
그만해라
##순환
협조
kr
##ID
몰래
유니클로
##시간에
쓰면
40대
언제나
지지합니다
##해질
##FF
증가했다
대부분이
유엔
떠들
2번
무뇌
##시설을
찍은
##실에
식당
행태
##았다고
##내야
무섭다
##조직
커피
최후
##지네
##하죠
##공산당
이름은
초등학교
##줄알
떳떳
게시
##으러
하니까
좋을
or
캐나다
이틀
목포
아가
교도
과도
##나네
##져도
올리고
집계
##는것
성범죄
동해
좃선
##00억원
경찰은
걸고
##럽게
주소
79
국민연금
##화와
명백
활발
중요하다
출입
##ground
본인은
싱가
방지
방치
전개
##연대
##레벨
유학
전문가들은
##스러
##보가
탈락
부자
되나
독립운동
##공무원
87
한데
1천
박그네
##책을
없게
자국
마녀
꺼져라
##라엘
여자는
수영
나섰다
계열사
정식
반미
견제
소모
##줄이
너거
##버리는
##했으니
##트롤
하여튼
##감도
##쳐라
3개월
##가다
동탄
가시
그러다
착한
2012
했으나
주면
다운
##십시요
##해준
스위
파란
안되고
합격
해운
##집니다
##정부의
달하는
아파트를
졸라
##때마다
No
잘못을
수소
싫은
##아지
손석희
rowspan
표기
##줬다
##마크
##리즘
인간은
PC
##전환
소리가
자리에서
여론조작
불리는
목숨을
거론
##상에서
BEAM
기대된다
계기로
##EO
연습
수비
##십니까
##광역시
윤석렬
중공
엔딩
대충
오늘도
##지니어링
박근혜가
자신들의
##거라고
Oh
해야한다
양성
2013
2천
경유
당첨
김일성
북으로
오토
마땅
예방
기름
농업
감히
##고는
자격이
말자
대해서도
직전
##되는거
##정권이
250
데모
##고등학교
성인
대통령과
만화
##데이트
시키고
않냐
##집에
##장판
올리는
##카와
##시코
쉬운
##가구로
게이
깨끗한
대상이
현실을
background
##조치
시나리오
##었어
게임을
##기면
##아님
타이틀
##중에도
결과는
브라질
진작
엔진
삶을
##된다고
##따위
안됩니다
접수
추구
위의
국회에서
##보도
##23
말하면
오버
sc
##ub
본격적으로
##농단
정경심
##하기는
통화
##AR
##분간
날려
무관
사용자
시장을
##원과
##재인
대미
왜냐
어려움
아카
살아야
자존심
마음에
링크
혜택을
인하
피해가
##통이
충돌
문재앙은
사용자가
거두
##저씨
합류
죽고
읽어
접촉
4차
되어야
시킨
2억
하나가
##시킨다
강제로
아니라는
본래
연관
지소미
##아들
넣어
민폐
정부를
##발을
2010
당해
명이
재개
##모토
##동네
##이죠
장관이
나의
부상
93
ㄷㄷ
##포르
잠깐
둘째
##더냐
##장난
##알바
건드
##카오
비교적
성추행
거절
꺼져
아이고
무엇보다
한참
자율
마케팅
정도는
##력의
##하나요
관계를
특이
이스라엘
아이를
##per
##든다
##청원
삼성이
##망을
##호텔
##가게
이명박근혜
김어준
##차에
진술
존재한다
정신차려라
##내기
공모
정말로
191
##시장에서
아키
2조
##것처럼
대거
##병이
호소
필리핀
현황
부모님
형태로
잘살
6개
하드
##었다는
조장
나대
죽는
선임
##이와
##버렸다
##수와
분들이
좋아요
한가
기능을
##지자
떠오
사실은
##tt
##마니
1순위
##피아
##DP
고백
아닐까
종족
썩어
전설
미니
짧은
비하면
응답
##초등학교
94
디스
시기에
##병을
결승
10억
2주
원내대표
북한을
달라고
복잡
##eg
##타워
외관조사
의견이
트럼프가
정착
##가도
모바
이런게
객관
중반
##적의
##올림픽
수업
맞는말
##살이
##거임
놈들은
대대
개의
바퀴
안들
검찰의
보완
전작
##았을
가치가
대안
웃기는
##PC
##마가
북한과
배운
창조
아오
대리
보안
위장
이행
##ort
박영
잡을
이정도면
자유당
##것만
안녕
##투자증권
지역에서
전일
줄여
가량
상상
##되자
중국을
전사
국가에서
발굴
정의로운
추진하고
망가
##대변
##날이
죽어나
그야말로
##키가
중국몽
모지
방향으로
안해
합법
##거리를
동북
안달
아파트는
##하지는
되었고
문재인을
알았다
하더라도
회계
정도가
##구멍
거대한
잇는
이니
김학의
후쿠시마
라디오
받아들이
무릎
현대중공업
하지마
##bc
운동권
정준
해보
##부담
공평
운송
많았다
##군에
##액이
##역으로
##좌빨
저건
##공동
포함해
돈도
돌아가는
버전
비서
사람들에게
선출
취약
내리
##66
평범한
확충
##혀서
노력을
비중이
자발
##였지만
업데이트
주어
##작업
co
on
간신
정상회담
제2의
##폭탄
성매매
자영업자
막고
제로
살다
##해졌다
어마
인데
주상
나서서
버닝썬
##네들
##수있는
사고가
할까
출처
##씨의
##업종
이슬람
시대에
흡수
##로도
자체를
하나는
발휘
회피
##cm
일시
이르
시작으로
보내고
이런데
조치를
알려진
성과를
인기가
노릇
이상을
이후에
것들은
메르스
지겹다
서해
할아버
##OU
끔찍
##연구소
것인가
##해진다
지경
##벌이
##청은
부하
프리미엄
창업
에게
쳐먹
##조사를
##훈련
지령
암살
##프가
Pr
기업들이
##수지
끝났
89
오죽
##국인
소프트
알아야
시장에서
구체적인
##했음
관측
일어난
모드
지지율이
1층
##기능
스크
선고
##지며
무엇을
위험한
##kg
그다
겁나
어려울
800
##iz
여자들
가족이
매번
본격적인
##마냥
한게
대한민국에서
임신
##ax
여의도
늘었다
##대화
##관에서
분당
##FA
##하하
##으로도
##호사
조금만
##청이
입법
악의
##자다
ㅅㄲ
##추진
##합니까
##기구
부탁드립니다
하나같이
작전
핸드
거냐
아쉽
쌍용
##허가
결코
대결
고문
경기를
##대도
느낀
강도
일반적인
##ive
호주
향상
시스템을
급격
##공화국
시간에
심사
나은
부들
더한
입지
제4
##하다니
나가는
민식이
##먼트
##대전
##관의
##호의
데다
클리어
플레이어
챙기
시범
회사가
##테이
##ik
한다면
##세권
자제
김재
##트라
이끌어
인기를
날이
##ope
##값을
정답
##로그
이들의
정치에
어쩔수
##생이
##실히
그것은
##할게
##실한
이론
한진
붉은
만세
1분기
##상한
떠나서
##하든
만든다
해놓고
법안
방탄소년
찾는
주장하는
장애인
오만
##NA
최선을
퀘스트
머리를
치명
현장에서
##있다고
저지른
사용한다
황금
친북
상가
##모습
##로드
##사용
##지영
중앙일보
묘사
##쇼핑
가려
탓에
##해지고
이정
심상
상태다
송파
##하겠다고
##당하는
보여준다
요리
##영웅
곳에서
61
##류가
##수엘
그녀의
##래기
애비
이용하는
구성된
##고속
##열한
생각도
가속
놀라
##됐고
##들인
##생명
##간첩
즉각
##ng
내내
예전에
각성
휴대폰
아이디
봉쇄
스펙
컨소시엄
수혜
시체
##xx
이재용
규모가
종로
막기
만들기
##정상
동기
급증
수준을
##사람들은
오바
코미디
##해온
공격력
1998년
지금이
살아있는
##주자
어디로
어쨌
너희들
구멍
파일
확실한
할때
##만원을
만들어진
소수
##시나
##타로
##닉스
##못한
##제철
환자
이영
하는건
에피소드
##하자고
전직
##기계
웃긴
##외교
정규
AI
전교조
이렇
한계
안에서
##무역
훌륭한
##욕을
낭비
##닫고
없기
언론에
##계획을
체험
포켓
지역을
보일
시전
세계에서
비핵화
##업계
감당
##비율
##안되는
##ame
건지
적합
##신의
남자는
데이
마구
받아서
그러게
##현장
맞은
침략
1999년
##나라가
한때
북한으로
펼쳐
공원
심한
문재인의
##이게
든다
##직한
92
사진을
화물
##사업에
안하면
인간들은
시는
이같은
##역에서
배틀
무사
육군
외면
##지수는
휴가
일산
마사
2위
무게
인건
민정
사면
##가면서
##둥이
어디까지
강행
모바일
현행
##거든요
다음달
그만하고
정신을
##끼들
운영하는
지는
##ant
위에서
10만
것인지
깊은
##내려
새누리당
주관
학살
편성
청와대가
##수하고
일반적으로
##전철
말라고
머리에
##줘도
엘리
인성
위대한
몸을
검찰에
꼰대
3억
##LO
나간
##시장은
##설을
점은
청주
AP
보유하고
##거같
플랜트
나라망
부르는
포르
오프
100만
GS건설
해방
상향
##판이
할말
건데
##덩어리
앞뒤
##층이
리얼미터
끝이
##처분
소대가리
##종목
대림산업
깜빵
노란
##EC
##받았다
##민의
거짓말을
##워야
하는것
##개선
악질
##타는
##지션
##포를
해당하는
회장의
##통을
중소형
##ith
무상
부회
결국은
우습게
##공을
착용
놀아
거기다
Th
5만
서비스를
여성이
증가한
특별한
와중에
산정
정치인들
마누라
##걸고
개돼지로
거품
국산
모르나
일베충
##선언
##길이
##ok
##관에
미개한
FC
점차
극단
##베이
건교
주주
욕심
삭발
##000여
##ain
##신은
##부들
안됨
물려
##받는다
밑에
##각을
align
##인에게
유전
모으
짜파
##월드
폭로
위치해
바이러
목록
정도면
역대급
인근에
커녕
##심한
놀러
전수
##증을
조지
KB
좋고
춘천
##중국
일당
주상복합
요즘은
출근
##우기
레드
##구려
베네수엘
보세요
정책이
매장
##인들의
짓는
좋은데
참석한
물을
임대료
수령
좋게
##못하는
나오는데
시가총
110
IMF
들을
해상
적폐청산
보아
법원
얻은
비정규직
위축
재밌
숨겨
하나님
안쓰
##대기
올바른
##방법
시공사
##ect
발생하는
##이었고
주기
##cc
망할
##공사는
보유한
도저히
때부터
트리
문제지
##터를
우리나라에
적절한
아마도
조폭
보게
치는
##대사
이처럼
진화
##하겠습니다
중견
##입장
안나오
##봅니다
사모
전광훈
##준비
깡패
이래도
지금이라도
제압
업그
math
뻔뻔한
스트레스
배제
오르고
스페인
##배우
2011
##되니
##다른
신천지가
리스크
워크
##SC
생성
시키는
김경수
나면
다른나라
동성애
##버린다
##했어요
세금이
신호
##네시아
CEO
대장
##실험
##se
지역은
무소
형제
학생들이
##해져
미션
단축
##했다면
##웨어
선박
국도
보인
##디언
시켰
엄청나게
독도
##장애
##트에
가지가지
한반
##사카
직무
##없으면
인가
##표가
스케
식민지
##33
도와주
배후
대표가
언어
지나가는
##색이
씨는
예고
부분은
정황
이용해서
이번에는
##21
##권에서
입장에서
못된
어떠한
종종
##유공자
붙여
양호
그네
##28
공시했다
후보는
이언
내야
의혹이
갈라
Al
##았지만
찌질
경기에서
균형
CC
안좋
구조조정
##우지
명품
바쁘
엉망
##평화
일반분양
##서로
##부도
10개
수리
30분
##💙💙
##못해
망해
##ns
들어갔
채택
##못하고
서버
보니까
##매국
가즈아
노동자
##가자
저장
##서울
##탄핵
뭐니
##단과
갖춰
공주
잔인
##고생
차이나
며칠
조작질
이용하여
일으키
기사에
##취급
##체는
##에게서
지은
할줄
건의
##할려고
편입
##치한
부각
현상
1997년
블록
##값이
당신들
##사들이
싸이
남양
용역
fr
##받지
왕따
하늘을
맘에
여부를
##해봐
드는
남겨
##ff
세운
1등
실내
##공사가
ㅇㅇ
##일도
여담으로
##대문
유가
여러가지
여유
##액을
끝나고
##업무
배상
몰고
##면이
전월
한걸
과정을
폭등
##안보
끝날
##비의
징징
각오
오른쪽
상무
문재인대통령
터널
명분
전쟁을
3번
엑스
실수요
##카페
##분열
아사
상담
침묵
##인데도
순수
가능성도
어디에
황제
다음에
자료를
원을
소요
##장치
비율
체계
##동맹
동일한
받으면
##세이
단지는
급여
##있을
##하겠네
경쟁력
했다는
##모르
우수한
주제
##때부터
##즈니스
길거리
멕시코
##체육
##선다
안산
증거가
##르트
##실로
is
웃음
죽이는
교육을
##측은
##35
웃고
먹은
##리니
입맛
잡는
건조
보소
일찍
학부모
##활동을
##재는
##기다
여태
카메라
전주
더더
##데로
파렴
##거는
##모리
불쌍하다
##ber
##시켜서
안한다
##형의
쪽으로
돌아다니
신의
##경북
##27
의하면
##무라
##대와
공정한
대한항공
말이야
3천
실무
##신고
이상으로
싹다
없던
위기에
재생
##졌는데
##았습니다
수학
##예정
있구나
##기획
넘쳐
##있습니다
대다수
얘기를
할인
##으려는
지역구
퇴직
##용지
작업을
난민
생겼다
관계가
밥그릇
기업은
민주노총
그러고
위키백과
##맞고
인도네시아
있긴
##하더라도
하네요
되면서
##한가
##미나
같네요
정의를
대외
##있으니
##정권은
##국민이
##시장의
맙시다
개인이
사태가
라이브
없었던
컨트롤
궁금하다
여수
쓴다
##리는게
심리
##하시길
어서
보네
##집을
영토
실력
어려움을
스테이지
좀더
##이었는데
대량
박수
##문의
##하면서도
패러
##애들이
##임에도
카운
대륙
##키들
천안함
##레이션
##연이
나설
##북한
자유를
넘어서
1명
과업
좋겠습니다
##겠지요
##조는
주한미
놓은
한국경제
적극적인
발전을
##동강
##신청
##억원에
시작된
##부족
줘야
임원
저능
음성
짜고
##설계
##센트
거대
나가서
##인척
권리
통상
싶으면
##00여
##해지는
##타가
양국
##랐다
##쳐야
발광
내지
멸망
부디
사람에게
##지는데
##하기에
Sp
아픈
새롭게
참나
구현
##강도
국내외
명복을
안타깝다
##시설이
##인터
연평
##로우
다소
##ext
다수
베이징
3분기
테이
사회에
##하겠다는
펀드
독재자
##일베
##시청
서부
달아
Sh
##장기
도발
##와도
##갑니다
##금속
세부
##일세
##씨를
모임
##보복
##일리
포켓몬
##진은
따뜻
태평
장제
##었음
자이
사우디
자식들
네트워크
대립
##아시아
##의식
부적
문제에
##해야할
##파가
##진영
뒤를
세이
동아일보
불가피
입증
브리
박탈
가치를
시티
##라는게
##됐던
비하
##규제
##하자면
미디어
무력
망하게
배수
나를
갖추
##분들이
##파괴
제정
##케이
지소미아
패거리
2분기
##었는지
다음은
##질은
세무
부작
제외하면
방법으로
개뿔
부도
편리
##였으면
전무
절감
돌아오
죽어라
##마스크
좌익
계속해서
##ud
듯한
문자
##시도
견본
##즈의
71
신경쓰
의혹을
##화하고
그딴
시세
##26
고스
##크가
##까지만
옷을
##이여
##PS
##체로
사용한
맡고
##형은
미성
사이에서
서민들
욕하고
보냈
소비자
하려
이종
뛰어나
##았나
언제부터
일하고
자체는
##겠는가
##사이트
마감했다
괜찮은
난이
없어져야
이사람
##의로
한전
4만
우리나라의
##혔다
##없는데
없으며
##것다
##르지오
죽어도
한사람
던져
에너
그럼에도
##age
인물이
##기전에
지속적인
약한
어떨
선생님
못차
130
착수
##돼야
어르
비행기
##장한
간의
아파트가
##패를
SNS
##75
기회가
##란히
종이
부분을
##편이
시대가
패널
분야에서
상승했다
##45
마리
살게
아닌듯
싱가포르
하위
인종
두번째
합작
영역
##이슈
의뢰
처먹
방탄소년단
아군
시작한다
분쟁
##아의
##층의
위주로
##29
##내지
있는가
무효
한국어
텔레
밀려
사서
##승을
2009
많을
유발
상식적으로
실시간
##만하면
##박한
아무래도
않기
선배
잡혀
ㅈㄴ
Lv
토목
##용을
일본인
끼리
전부터
위원장
##메달
남부
10대
감옥에
마침
##연을
##방안
##클럽
##들에게는
보존
나빠
못살
사고를
상생
써라
##답니다
##그룹의
금방
##유치
평창
플래
한국전
##설비
유승민
##시피
##기반
##어져
도중
화이트
강릉
##는거임
##아니다
아닙니까
##감한
되겠네
##토리
하향
1호
##시죠
2008
개봉
넓은
##판매
##하는거야
로드
여기는
마지막으로
##네ㅋㅋ
##탄을
주가가
##락을
차관
댓글을
자진
유가족
재앙아
##지라
날뛰
복수
김치
듯하다
##스에서
비록
##동은
교환
집값이
대주
기재
터키
걸렸
여겨
만들어야
빌딩
모든게
같음
많지
정규직
했지
구경
안되지
보입니다
다크
##문학
##지인
기반으로
Ar
딸이
##색을
조금씩
중화
표면
빕니다
구글
건설에
통행
김동
경비
세계적인
##속으로
차고
제약
##이에요
##랫폼
들었다
크고
소상공
편하게
##음에
당분간
##하던데
사업의
공사가
##DI
전망했다
기술이
##보드
##주의자
중재
무서워
애가
면제
##동으로
늘려
있다가
동시
예외
올릴
추적
방법은
##츠를
어쩌고
빌려
확실하게
이새끼
##편의
솔로
##어마
대국민
##받침
한쪽
연료
맡은
##하지말
시국에
철회
조합원
##있던
##알고
곳으로
나아가
오해
인정하고
오를
폐렴
구상
맞서
100년
다스
타당
당하는
보다는
불만
##시작
##했다가
가계
##수산
등장한
초청
문화재
멋진
공익
연주
##건의
다리
##만하고
질병
##뿐이다
기본적인
트위터
##혁명
넘들
허구
파는
##ie
##때가
##번호
100만원
이야기가
문죄앙
비고
##나도
잡은
장자연
지지자
니들도
신중
##기야
##으라
묻고
가능성
삶의
##빼고
댓글이
장군
국토해양
##관계를
누구를
존재하는
파트너
인원
##감에
개성공단
미치는
공을
종사
들어서는
끝나면
##AC
목소리를
물량이
##포트
조국의
##하였으나
싫어하는
얼굴에
얼굴을
탄압
대법원
민원
떨어질
있어라
이런걸
화재
먼지
시설물의
지방자치
미사
은근
이런식으로
많습니다
IS
이수
앞세
##속도
신체
##다는걸
검찰을
하락했다
승진
##상품
##분은
발언을
기업을
성향
마음대로
신한
이대로
야마
겪고
먹여
할일
##화자
##하더라
##시키기
##ly
##하므로
##없다고
점도
경쟁력을
버려
어릴
wh
##일의
열애
않아도
옵션
##었으며
에스
##ast
아버지가
##당시
니네가
##하루
##한테도
그러냐
##주차
##적폐
##받아야
##준다고
과거에
스탠
ww
##종이
보관
아산
주민들이
이어질
디자
시달
모르겠
##면으로
못해서
찍소리
머물
진짜로
##자들과
병역
##중학교
기동
이르는
##진의
##ver
올라가
요구하는
견본주택
아부
81
믿어
##는거고
기각
뭐든
##안의
##인게
이라크
조센
했는지
관여
미만
1996년
##이유
##이후
##너무
IC
scope
##미의
무덤
##배를
YES
자가격
놀랍
##AN
전염병
경주
##아주
의외로
딱히
##리세요
오마이
특성상
전경
##잔아
##함과
간부
몇십
회수
자는
##엔지니어링
모욕
사리
##공정
적화
##틀딱
드립
1위를
현재까지
가해자
##빠리
소폭
전술
##로만
자칭
맞춤
패스트
같냐
아직까지
지닌
코리아
김상
특유의
요금
소위
##는건지
##그런
50대
불확
나랏
어둠
그녀는
당신들이
독자
타카
가능성을
뭐지
신성
##마를
##하는거냐
ㄹㅇ
중학교
##사퇴
마르
배가
좌표
스카
##200
##인건
지불
마이너스
##재단
문어
꼬라
공장을
일러
시가총액
##이니까
현정부
가중
##수당
소신
##px
없애고
염병
너희들이
상속
입으로
외모
##화하는
태어난
동작
금속
##감은
지명
그날
정지
##트랙
지들끼리
회사는
서류
조언
##이구나
##앞에서
발전소
화려
숨어
조현
월세
잘라
소멸
아는데
일에
침몰
안정적인
##부장
개설
##겨서
7개
##평등
##시네
골드
자신은
조절
못하면서
증언
##쳐도
비공
내용의
##로로
각자
결합
유기
떠들어
타임
모래
##싫다
##시장에
전후
기원
다수의
##부동산
유력
##질로
태국
늘고
PF
않았고
##권과
모르냐
몸에
##구니
할배
인턴
##모델링
##스키
사회가
건가
부담이
장갑
속보
맞이
##브리
##na
추모
1995년
##정비
##목으로
##충들
##미래
상승세를
등이다
혁신도시
대통령도
##ON
##주와
얼굴이
선거법
개조
아메
##정권의
스웨
##ark
깜짝
절차
##들이네
전매
테스트
개같은
##동원
말아야
정권에
김기
생길
것이란
무엇이
MB
2회
인간을
제품을
반등
##하느라
##령을
##방식
아이폰
기록한
처벌을
아저씨
##내에
속성
족속
##답다
##간이
##하구
##폭이
##지오
조선시대
예산을
조카
지지를
구미
학생들
남이
지들은
안되면
힘입
것만
어케
##ews
##파로
역겨운
다닌
늘어날
##보소
증시
##당에서
##마는
##기록
강의
덕에
수집
크루
##소송
대화를
작작
입장에서는
수고
나라로
##하노
땅을
you
인구가
경호
##러리
순매수
스코
코로나로
줄었다
##HO
이른바
##봉사
노트
했냐
말인가
올해는
상대가
##협상
사랑하는
##랑이
신입
##한거다
재활
##하고도
##이면서
##고기
##ge
의지를
북핵
양보
드라이
1시간
##돈이
전과
##ry
파탄
간접
상대방
부른다
열리는
댓글조작
아름다운
##치도
소득주도
##실장
건담
보여주고
야이
엄격
코스프레
##소나
##100
추잡
##하진
##면에서
##러가
##스카
##었으나
##적도
중간에
고시
어딜
패션
그간
침해
애를
##그라
급락
감소했다
##디아
##IS
들어간다
안심
접속
높게
역사상
잃은
##드려
##바뀌
##유지
경부
거라고
더럽게
체결했다
##터널
어마어마
먹어
불륜
안하냐
발달
##양반
드러나
세금은
##이므로
환승
##ure
대구경북
사장이
##이용
교류
어르신
##졌다고
써야
쾌적
##으셨
모습으로
모범
##적이지
개발을
##역과
뭐하나
##금의
않아서
마주
안할
이순신
##즈를
갤럭
같네
##회복
부천
아니라면
꼬리
음주운전
단순한
자식이
##듣고
전철
##지역에
원가
##속에서
아니냐는
최신
천연
안그래
자회사
##전한
##000원
듣는
처분
더듬
어깨
##명과
신동
있음을
현지시간
불교
##텔레
내년에
싫으면
##연한
##되기도
망신
그정도
윤총장
##등록
##였다고
대가리가
꺼내
##지키
줄이고
막대한
##위에서
##것입니다
사망자
출판
유행
인간아
Un
보여준
##렸는데
##ial
##ae
##불가
##ld
##재의
제5
국세
시켜라
##살기
##들이랑
숫자
장소
대접
심의
전차
700
##걸이
##풀이
가깝
페이스
##수호
오세
##OP
삼국
유리한
일종의
##건설의
##는건데
위기를
니는
무대
떠올
않음
해요
##화자찬
##검토
##렸고
##고로
공인
관계자
##이치
주둔
##마나
당황
간담
##좀해라
##금리
##학을
##유럽
없네요
옹호하는
예정인
저격
이어지는
지도자
팀의
##였습니다
억지
김용
목소리가
타워
파면
##수익
주민들의
사정
체제
괴물
읽고
원인이
오면
머저리
홈런
##다는건
##비도
이태
저소득
##나의
2007
7년
미성년
경제성장
교과
들어온
헬조선
골목
##이라는게
##받게
구린
총선때
유로
##종교
##끼고
이들을
우리국민
퍼트
유족
당대표
##질러
##인프라
이것을
나이가
경향
##차량
유투
속도가
##ian
누군가
차지하는
##도안
의지
입사
싶어서
##건은
##조에
##조로
##토지
##겠군
##달라는
찍고
기준을
관종
##시간이
##코로나
##000명
소식
되어서
청와대는
##하기가
나경원이
##부처
외치는
환율
가질
##진흥
##IN
오랫
부담을
법은
철저하게
안맞
##77
처음에는
##ass
##쳐먹고
반란
종전
참여한
전공
www
휘둘
감안하면
되며
##자리에
임무
##고에
고통을
우리를
여경
신라
일으킨
##게이트
죄인
분석했다
##당해
##살인
플랫폼
이쯤되면
돈만
흔히
해골
##ttp
##것같다
##스테이트
컨셉
##사업이
##처먹
미술
##폐기
##군과
##ear
GDP
하겠지
국토부
##베르
측근
##부인
핸드폰
##다니엘
as
##운하
##네가
역사에
고령
카이
오빠
189
가깝다
자유대한민국
탑재
꿈꾸
##65
규칙
도박
손실
그들을
따져
##마음
##도우
##전부터
이완
전체를
리모델링
출생
갖추고
##없지
업무를
나라도
##ey
민경
일행
애매
투자가
신공항
##이어서
다같이
돌입
HP
수능
카카오
석방
##역사
자화자찬
것이지
하나만
탑승
가상
거래를
비디오
매출액
신혼
##AE
장학금
##구라
것이라
##그룹이
의미를
지분을
베네수엘라
##만으로도
매력
##이었지만
닥터
##ment
쫓아
도달
##시키면
몽골
신재생
보며
탈탈
피해자가
살면서
##근로
걸리면
##ust
교통사고
자금을
원정
http
국가에
연설
##론이
##계열
예능
기상
써서
기자회견을
걸레
##부채
비웃
순매도
##왔던
등장인물
국민과
##니즘
입시
##치료
저축
변화를
알아라
색깔
있으므로
신종
것인데
중구
보고도
찾을
납치
잠수
넣고
140
적어
##왕의
##자격
느낌이
맞을
국익
요소
좋아서
내구성
애기
##드에
시점에서
꼼수
##끼는
9시
##84
풀이
정치가
무산
몇번
타이밍
전체가
엉뚱
##파는
지니
##절한
##제공
6년
힘입어
이단
우리나라도
##개념
##다녀
전역
##중의
##나가는
게이트
황교안이
서술
충분한
2006
하도급
득표
순환
비정상
살면
승강
지원하는
저걸
##내라
##간히
하던데
##약품
확인할
text
##달아
##지않고
똥꼬
프로듀
##ee
지수
히어로
충전
##않고
##파악
여가
표를
임종
주최
차를
Com
상임
수준에
승리를
보이는데
160
팔고
미칠
STX
나이트
장점
분양을
##동에서
개시
##주니
찌라시
##선생
카드를
일삼
선도
FI
##증이
##아프
억지로
##지역의
가격은
관련한
사립
##였으나
공영
되돌
##ite
힘으로
생물
##였네
유재
##더군요
지표
오리지
##세트
##없어서
##량한
혁명
되찾
##미로
밝혀라
##바이러스
##만원으로
것이며
최소한의
##미사일
##급으로
##말도
없어도
일어날
로스
주범
##배가
##체계
두려워
##추어
##AS
지키고
밖으로
적지
다녔
조금이라도
국가대표
미국을
##인상
깊이
##장인
서울특별
치우
널리
Tr
##치다
##치네
##방에서
양심이
안된다고
때에는
일본도
놈은
아랍
파리
##사냥
##몰이
##LE
영향으로
##예술
##둬라
An
지주
횡령
조차
납품
저작
근로자
표창장
마냥
브레이
KTX
##나니
##터미널
##히지
파라
닥치고
늦게
주체
사건은
수송
하나를
협약
지키는
소음
##테고
보라
상태가
##졌습니다
영남
8개
##배상
##투기
1인당
##르의
인용
결함
알렉
임직원
포지션
##왔는데
이승만
##중대
##투쟁
마쳤다
##으려면
봤다
내렸다
국내에서
감동
작동
사례가
쳐다
똑같다
추진하는
매니
정밀점검
##거품
뭐하러
##년은
##문서
이은
초고
##52
덮어
공동주택
될까
멀티
적대
나라다
##운용
이러다
세계의
##드와
회사의
세우
망한다
국정농단
들어갔다
##포로
몰락
말로만
운전자
##ob
##이닝
##신교
##MC
떨어진다
##사무소
##까지의
##살을
##청구
##돌이
김원
정확하게
기후
##겁니까
재인
##았냐
생각하지
능력도
광우
사쿠
가관
중국으로
조민
유지관리
점유
후보가
##지않은
##행사
베스트
중에서도
##즈가
모니
전락
##질의
산불
##진단
차가
사격
##서서
음반
오스트
마다
비용을
결정을
상관없이
사법부
##브라
##하는거다
##세금으로
모지리
투수
저정도
합성
해줄
생활을
##88
한국과
사이버
커플
발목
시골
범죄를
##qu
코너
책정
신념
택지
학습
처단
PD
모르겠지만
##력발전소
국회의원이
정준영
##산업단지
##조국
받아들여
한방
##체에
##산업개발
##하겠냐
콘서
SM
##캐슬
그와
입원
조상
3위
몸이
청와대에서
바꿀
누릴
남자들
##색히
서양
티비
댓글들
푸르지오
##수저
사령
##돈을
##질에
SS
폭동
##인걸
비즈니스
서구
##선과
##자마자
차려라
아파
일자리를
한창
이기적인
##까진
일주일
분양한다
보고서
멍멍
주장을
애쓴다
화염
##억원이
들어가서
댓글에
5억
싸우는
철저한
기록하고
만날
채워
어렵게
잘해
서브
수습
연대
##들이지
##화될
할말이
스티
##스러워
##려도
일반인
유공
성별
할수있
한수
고교
나타냈다
공용
##다이
국회의
마시
##코리아
담은
CD
##화한
##났네
미투
##해야합니다
##ㅅㄲ
##트와
그쪽
##차고
기준이
절차를
##권도
UNI
선거에서
노벨
성장을
##겠구나
개무시
그러지
##정책을
신세계
어쨌든
##관으로
선거에
제공하는
되도록
나만
미국도
##치면서
어느나라
기업들
##보며
이모
사이의
##IA
오늘날
이후에는
##소한
명시
사회의
시사
##당으로
페르
바꾼
더더욱
##경우
손님
유죄
달한다
감성팔이
허락
줄줄이
##개입
##평을
##ord
느낄
##위원회는
지나치게
떨어졌다
멀쩡한
##말에
있었으나
첫번째
택배
##64
여부
하는짓이
민낯
보이며
누구도
배급
##디스
그렇다면
##넣고
1994년
##여명이
미래에
할지
조각
강다니엘
영향이
##목적
##94
현상이
총괄
머가
전체의
예의
역시나
지역경제
이넘
##해왔다
기관이
분위기가
##령이
개발에
##사들
서서히
##나갈
정책에
버린
##페이
##인간들
나중
##되었는데
밝히고
##호기
개돼
하루에
독점
##릅니다
##얼굴
##됐습니다
##비와
때의
소리하고
구역질
센트
합쳐
91
##가나
행동이
기획재
북쪽
##시위
마나
본인도
선관
제도를
##보상
항만
발생할
ch
테크
거리가
장면이
##집에서
##EN
3D
##옵니다
##통에
마스크를
그런지
법조
열면
정치는
출장
수꼴
##마스
부끄러
##집행
반응을
끌어올
살지
누적
온다
하루빨리
비호
치킨
안전한
유용
더러
틀딱들
죽었다
무인
적도
아기
##보라
대책이
곧바로
##소리는
향한
내다봤다
중산
모여서
싸울
고려해
절라도
지수는
앉아서
그들
국적
강력하게
설명이다
##마의
터진
##꾸로
##텔레콤
보좌
혈세
##놀이
어딨
암튼
떨어뜨
##얘기
어처
2명
기다리고
좌파들은
오지게
##보유
Bl
싶지
말까지
이인
외국인이
손잡고
해봐
##소녀
아나운
##받아서
KS
번호
집합
죽는다
신흥
잘못이
틀어
3조
##었으니
살짝
##등등
##인생
대해선
냄새가
기관은
##구속
사태를
##감염
##훼손
가을
사용하고
잘했다
##이었으나
하거나
##요금
단단
##드라마
말았다
박멸
순식
노답
JT
대갈
슬프
안전성
자기들이
##잡을
안전을
크레
유독
막아야
이시국에
GZ
새끼가
이집
계좌
##어버린
##당할
적게
##사업은
긍정적인
관할
김제동
생기는
서명
것이었다
##인지는
선포
고맙다
공적
##정과
특화
##심의
긴장
여객
다섯
대중교통
##58
맞네
더럽고
가볍
중심의
규모는
국가와
##올라
해안
걸릴
성공한
은폐
변화가
##플랜
재능
안고
키우는
납득
##OR
잘난
101
가족들
이것들은
라도
##식품
##루스
##례를
하나인
오름
맡았다
지출
##구간
##화되고
##걸까
모인
채무
큰소리
##게도
밀양
##혼자
압축
점수
##먼저
불확실
받아라
공매
##34
우울
체크
조국과
바뀌었다
그레이
하천
과천
않았지만
시대의
재인이
자라
경찰에
퍼뜨
몰라서
##사업의
양쪽
##걱정
국제공항
##임대주택
##내면
무서워서
안팎
남쪽
말장난
나머지는
진지
점이다
적정
단위
유지하고
변형
보수는
##이런
스파
면상
기업들의
임영웅
꿈을
분기
##퇴근
유래
방송을
로켓
최상
빼돌
##냄새
##편에
##오염
##가는데
##래요
시비
##하실
웃긴다
기다려
사전에
생각좀
웃기고
평화를
2005
소규모
가격을
어쩌다
##프는
대체로
낙태
원활
sm
교황
추진할
##메이
##되어서
##스럽고
##하잖아
시민들이
##전사
##순간
보내는
##이음
느꼈
확률이
그놈의
원주
##수있다
랜드
고쳐
광교
사건의
소용
트랙
떨어지고
##les
불과하다
사생활
통보
계획이
주장이
##카가
pr
광명
##최고
에서는
떨어지
군산
알파
해외로
가능할
결정했다
##만들어
정도다
##하기를
네덜
국정원
##구에서
br
감축
헤어
역사가
질질
몇명
전방
##하게도
##곳은
##00원
귀국
내주
현실은
배웠
처형
한국당이
##터가
##종일
동조
전망된다
시설물
죽으면
10분
박근혜는
초등학생
당연한거
국경
##했었다
국회에
##감으로
하느
고성
CP
##어죽
##항을
달린
시켜야
하필
퍼주
얼른
개막
움직이는
##는거죠
무주택
##업이
저렴한
책임이
우리나라에서
제외하고
배터리
파손
부를
말대로
왜이리
##학자
공안
MOU
세계적으로
##새키
반납
##미안
청와대에
##37
##거리고
EX
사시
지킬
추정된다
고등
##꺼야
##판은
아니었다
연결하는
높여
##줘야지
성공했다
언니
탄산화
행복한
민주당과
종식
제대로된
##는건가
고인의
##IG
업그레이드
잘못한
분산
유효
지침
휘두
##것으로
실질적인
북조선
기대하고
하는거지
빠는
기업에
목적이
##구와
부서
깔끔
##시장을
##연료
##겟다
소중한
징계
##함은
5분
실적이
10여
##확인
속도를
비교해
유포
올렸다
주간
풍부한
잡아서
Cent
##났는데
US
##승리
호반
한국당은
##55
모자라
나갔
맞다고
공급하는
군대가
어떡
an
발급
일러스트
계급
##바다
##라이더
좌파는
당부
##였어
알았는데
부당
질문에
계기가
낙동강
##사리
커버
스웨덴
법으로
짜파구리
아무나
##긋지
저런게
의결
현직
쌓아
지리
콘텐츠
##학적
걷어
끊임
##등이
민경욱
두드러
##프의
거리에
보낼
SOC
1의
안양
지나면
##년에
##베이터
제어
백성
메가
얻고
색히
커지고
##담당
이끄
##치와
심하게
##되지만
이나라가
국민들도
상실
사람으로
저래
##참여
##드립
뚜렷
바퀴벌레
통합당
음모
짓고
##보인다
운수
인지도
##end
범법
혼자서
3층
저것들
자신에게
라면
개정은
하남
##레일
비율이
보도했다
오랫동안
##린다고
##크는
대항
드러났다
##인이다
##dfasdfasdfasdfasdfasdfasdfasdfas
튀어나
인격
##넘이
내려오
골든
##ory
전략을
막상
모색
여기가
##31
목을
바람직
##사나
사과를
정치인이
여자들이
스카이
초반에
전까지
당신을
마포
중독
##늦게
성립
청탁
##년도
주민들은
싸게
줄어든
요시
아닌거
##비전
적발
가벼
실제로는
두둔
##인권
있네요
경력
시계
##전선
부러
##래프트
있겠지만
##마저도
font
산하
##치며
1990년
규제를
되니
시발
You
무언
중국인들
구제
납부
언론은
천재
현장에
스타일
##부품
신이
역으로
안타까운
비겁
진행하고
##그로
부들부들
당할
##배는
무능력
손으로
##오가
걸리
엄마가
기회에
초래
##크의
벌이고
최근에는
승객
생각보다
생각할
장을
형태의
해주는
##조트
##이긴
믿지
자가격리
##하듯
##스턴
##키의
##로써
책을
법의
##협정
##았지
##거니
권력에
그렇지만
역사의
전범
씨가
##된다는
##종을
남편이
##관계가
목격
##목이
축제
자세히
우덜
다음날
##루가
면허
##만큼은
했나
분양가는
하나씩
홀로
탈퇴
집으로
잃고
모순
##은행이
##고있네
##여도
내정
케이블
변동
바뀌면
녀석
같으니
성우는
뮤직
관람
야당이
대통령으로
동서
미루
땅에
집구석
법적으로
미래통합
##분석
피눈
고양이
##코가
엄벌
수익을
김민
위선자
대마
아픔
이나라는
##연의
대표이사
##해야함
모습이다
새해
깨달
금강산
이모양
역겹
##림을
판단된다
싶습니다
##36
##orm
죽게
카르
막는
전체적으로
사회를
미스터
우방
유망
평당
##전용
밖에서
##비한
주한미군
##싱턴
##pt
##위반
나고
##거부
사람이다
##류의
배당
##백화점
시의
편가
도약
JTBC
비판을
다는
적의
잘한
연구개발
##건에
그로
폭락
기레기들
시리즈의
##대변인
냈다
##곳을
모험
사후
##골을
##숙한
확신
세계가
에는
EU
복원
스튜
정의가
##새기
자들이
##PG
차명
그런가
뜬금
언론의
경제에
천지
형식
이끌고
물러나
가졌다
아파트의
과거의
sh
곳이다
저주
출국
##법의
이번에도
##판결
슬슬
##원들이
##나라도
##전지
만남
##유를
공무원이
강세를
바르
투기꾼
영광
##권으로
배정
인하여
##LOAD
잠실
##기금
아이들을
##수밖에
좌파가
삼척
##OS
##지검
##인데요
런던
없구나
##자라고
##납니다
##러니
열차
##집이
어쩜
##재료
열등
돌대가리
실적을
상대를
내놓은
##써라
생명을
##오스
죽음을
FTA
근처에
1대
##체제
이럴때
실종
##공학
전정권
수작
국민청원
또다시
파기
당당하게
중계
##내자
##은행은
해먹
부분에
융합
##버릴
##부터가
망언
##망신
싸워
##회의를
##새끼가
통치
강남구
경인
규모다
받기
텐데
그릇
##과도
공론
견찰
##놈아
##문은
문재앙과
방향을
비용이
불량
##지하
##일랜드
과도한
클라스
##왕이
얘기가
의전
의정부
꽤나
이같이
했으니
김진태
회사채
코로나가
##듯한
II
나타난
공급이
##무가
불가능하다
##모두
이런건
멈추
까는
##여러
##편을
사이코
##해봐야
##영이
확진자가
공권
##하는가
감수
내란
때문입니다
부끄럽다
##톨릭
파주
맞는데
##사상
아닥
간섭
외국인은
기레기야
여론이
##개는
포트
말아라
상승한
참여하는
임진
역임
태평양
서울에
거죠
##들이야
NH
2020
개를
공지영
연재
없도록
##애들은
타는
팀이
일치
국무총리
파헤
진동
자연스럽게
##38
Min
쓰이는
유권
일본한테
물이
노래를
##국과
##버려라
SP
이고
##퍼스
서울에서
모습은
얻는
선제
온통
##것이고
##네는
##운다
도는
사악한
상황은
제시했다
토대로
##심사
분위기를
받아들
##충이
수장
극대화
후배
##물관
뉴타운
끼고
메시
10시
이상은
공군
2기
##부부
하차
##만원씩
시대를
태극기부대
일각
구별
증거인
실시한
결과에
##혜택
나뉘
##건강
관통
듣기
꼴이
합동
식품
##ans
1992년
특허
궁극
##판에서
시정
살리
찾기
고마워
따지면
화장실
하락한
생각해보
해외여행
##교를
어리석은
##IT
##층을
문빠들
119
집착
##수준이
감면
부정적인
전쟁이
공산화
사회에서
연도
갤럭시
막장
지방선거
##됐지만
##코의
##지마세요
제이
푸른
##놔라
##그냥
##eat
결의
나선다
눌러
말과
##렸던
한숨
##드만
러브
##셔널
이꼴
부회장
LNG
트레이
썩을
대략
북에
용기
히트
주머니
대표하는
출석
그대
하기도
어쩌면
운영하고
##39
밀고
권고
사는게
충족
개신교
불행
##르다
by
만다
##양이
##가는게
LCD
개혁을
높고
백수
##인증
않으며
##ical
것보다
있죠
지나가
불가능한
정신좀
낙하
만들지
느끼는
오리지널
##감사
하시는
이병
##분들은
기록을
##폭망
##만해도
일개
진행되고
힘들고
깨어
환경을
조센징
##폭을
하나하나
문죄인이
##나온
##지말자
찢어
지고
지원금
원천
벗어
##담을
교수가
오르는
있으니까
본사
관료
변태
피를
미나
방식을
##ib
188
##테인
맞습니다
##식당
실정
전반적으로
기록하며
무기징
안좋은
같고
귀찮
역전
##방지
공동으로
마트
높이는
3000
피아
조건을
없다면
무작
##어들
주입
국방부
불을
이후에도
GT
하려면
##의견
유상
뭐고
이러면
##되었던
##전과
돌아온
사건에
##됨에
들어설
훗날
득점
##속히
##ood
오고
공짜로
##파를
이노
##졌으면
힐스테이트
5000
억울한
한해
내보
오오
##렸을
이해할
##현이
영상을
페이
시설을
##환자
웃기네
날짜
경우에
정치하는
친구가
목표를
고로
플레
모든걸
않겠다
문제의
##기업이
##잖어
자신들이
OOO아
학교에서
내리고
만들면
양극
##국회
##시급
맛이
##해주면
말레이
##드니
수수료
세계를
어짜
법대로
관찰
위례
되자
##ys
##able
자유롭게
##지컬
##루션
주식을
##지노
개척
측면에서
낮추
입주민
##상식
##졌을
흐름을
서울특별시
너를
언론사
##ies
행위를
싸이코
세력이
더불당
전에는
##인것
북한에서
북부
##내가
과학기술
활용해
위원장은
들먹
습격
예약
##달창
살자
##시키지
##버그
##교사
##한거야
민주당의
분할
##렸다고
지적이
요약
먹으면
##있어서
재앙이가
##MP
##미야
않았을
관심도
다주택
메이저
적응
순식간에
허허
일자리가
초등
명절
찾고
계신
170
##으시
우롱
##두면
이준
출퇴근
플라
##기네
복구
경험을
골프장
##이래
답답하다
1993년
프로그램을
중대형
##하구나
케이스
##입고
입장이
##대지
##기념
진압
##졌지만
후퇴
악플러
##uc
필요없다
##싶어
이따
##놈들아
출동
##산물
인생을
##년을
몰랐다
공산국가
허리
##메디
발악을
신앙
##이란다
##44
수직
##명이다
##하는것도
하려는
근혜
이끄는
후에는
##박스
체감
개헌
무책임
증거인멸
##일듯
근거로
##노릇
밝혔습니다
세트
코드
##청장
다니고
##세한
소화
대지
뜨거운
점프
2단계
mm
계승
정통
가증
de
##세와
할거
##아먹는
##기본
##더러
동급
이룬
평가가
액션
정부도
##잡는
with
희망이
##67
일으켜
주먹
보금
걸려서
저가
다해
현정권
차지하고
방위비
전기차
##수입
신천지는
하나요
할아버지
살인마
##된거
여동생
1로
쓸데없는
##산업의
역적
개발한
##타이
Con
한국인이
##생을
##오를
않았던
서울시장
면적
김건
지역으로
만나서
##바지
광신도
##조차도
농촌
대치
##통제
가까워
알리
##췄다
지지자들
종목은
보컬
장례
정책은
중고
아깝
##ove
##즈는
까고
바쁜
##단체가
##저런
구체적으로
Gr
##이지요
필요할
사안
했네
너희들은
양심도
평가했다
##orn
고사
기자야
##합의
사대
거리를
다닐
어린이집
203
장식
아니니
##관과
줘라
tv
모르면
앞으로는
해고
모르겠네
끝났다
##긋지긋
고가
환장
##공사를
##환이
방문해
한양
##어주
들어가면
##진보
고의
극혐
한걸레
대가리에
##였음
크기
중에는
누가봐도
두렵
곤란
현실이
역사적
선행
##보여
과장
유학생
이세
##막고
난이도
##떨어진
##무슨
한국토지
##토론
##FC
##면의
##졌던
##크라
민정수석
##들보다
구나
신뢰를
1500
##수급
##반기에
어두
##보이는
잇따라
아라
명심
##소재
지향
강동
할려고
진실이
MP
버그
친박
##물질
SH
##계약을
##갱이
##ary
민주주의를
총리는
안해도
않나요
상용
대공
업체가
신축이음
##빌딩
##층에
없었고
시킬
##ction
오늘은
합리적인
##벨트
##리는거
##였으며
##구장
아니네
강서
옆에서
짓이
두산중공업
강성
무기를
일부를
얘는
걸러
##게요
##값은
50년
비교하면
안믿
##아니면
가슴이
살았
돌아간다
호의
마크
##막을
타다
3명
어딘
단행
기대를
병사
##ㅈㄹ
데미지
들어오는
오사카
##들끼리
##지능
한계가
들어와
첫째
없애라
##토가
좌파들이
##우의
##하겠지만
BT
분들은
이었다
##문재인
##코니
용이
문천지
이간
##실은
둘러싼
km
##철수
싸그리
##있는지
정해
개돼지들이
팀을
##강간
##술을
##두로
##ire
##행동
차지했다
##지는게
초월
신발
사라진
선수가
라이트
##지랄
##통상
좋으면
##사령
혐의를
이어지고
원래는
##yp
무시하는
여당이
당시에는
하청
백종
MV
구원
##자로서
인건비
##회의에서
ar
완벽한
사실이다
이글
안먹
1991년
인터뷰에서
##배로
책임은
격려
##이거나
영장
##데미
정당한
이지경
최소화
625
협력을
진주
좁은
##유예
안한
영국의
4억
연령
분야의
##살아
녹음
인테
현장을
##근무
싫어서
명백한
곳을
생색
##전기
##석에
문닫
##방해
이른다
##자라
##pp
##르가
새만
이미지를
##발언
없는게
구성된다
아녀
오너
##사업으로
##심은
하든
나타내고
105
였다
PS
##의의
성경
가난한
마이크로
##분별
새끼들이
##진한
##장군
세우고
##보면서
위성
건국
##부러
이쪽
서울시는
설문
다행히
지금처럼
손바닥
일방적으로
##꼬라지
김정숙
게임이
할것
명을
알면서
다른데
##플러스
##대구
검찰총장
건물을
사업으로
우리나라를
과제
##발표
생일
삼성은
살림
그때는
구걸
##io
##버는
##름을
이하의
심상정
소중
핵무
이언주
##들면
##금액
##안타
부장
방패
브리핑
광복
내놓고
출자
페이스북
정치권
가능성은
고만
모르지만
우호
단체로
민주당만
##싸고
전국민이
주택을
##내며
UNILOAD
화를
마당에
cent
청렴
문의
##할텐데
##창출
칼을
아니잖아
베댓
##랍시고
##대국
체력이
##act
세입
모티브
용접
구리
지긋지긋
유키
지역이
소주
BR
현역
바꾸고
가기
법치
2호선
##95
의미한다
집이
##ace
있잖아
버리는
나서는
에효
##입찰
말이냐
입력
##안한
듣지
다죽
해결할
##재해
##레오
##AL
없는거
##만5
미드
경험이
별도로
우리에게
필요합니다
역세권
잊지
잡으면
피곤
늘어나고
거고
레전
인천공항
똘마니
##롭고
다를게
우익
##ind
밑에서
워싱턴
연상
편의점
##산의
##협약
주작
이제야
##갈등
##두는
의도가
##위원은
##혐의
죽을때
##이란게
고도
입이
bl
쓰레
감추
##환으로
##기업의
##능력이
##었기
후보로
이며
모르게
##설이
벌어진
##처를
##포가
하신
형평
말투
##아래
이윤
부정부
예상되는
한동안
방송에서
503
너희가
진작에
되는지
꼴보기
나카
##시리즈
오래된
모니터
회사를
죄인이
기아차
밀어붙
갑니다
넘은
농민
증거를
##정지
##해준다
판결을
##격으로
판타
##85
주연
폭풍
도서관
4천
빨갱이가
반역
태영
일원
지켜야
후진국
불어
속으로
##TI
의사를
창립
조명
되게
의학
청라
##ha
어짜피
##글로
##군데
있을지
##키를
중순
회전
기억이
오세훈
##않는
준비를
##ㄷㄷ
전해졌다
##건으로
결론은
##시안
당시의
1단계
지점
##형에
기지
##만명이
감빵
5대
들면
악용
부양
##토의
##화폐
할머니들
했으며
최대의
되지만
##주냐
메뉴
개독
##는데요
희망을
인정하는
프로젝트를
문어벙
서울의
법과
주제로
순이익
사고로
김무
##오지
##겠구만
##시행
사용되는
식량
패스
마치고
창의
하노
##되었으나
과잉
조례
##가네
베르
##까리
백두
마녀사냥
앞둔
프라
##같네
발의
##여론
고등학생
##파의
영원한
##VE
비트
##수출
##연장
##났고
된다면
##지르
곳곳에
박지원
포함된
##증권은
강북
##인해
사람만
##학원
개인적으로
##69
##되거나
##판의
위법
위치를
##카의
##중을
언젠가
트럭
간에
낫지
거울
권력의
##석의
뜻이
##지역으로
2004
지키기
남자들이
하얀
그러한
##미한
해주고
낮다
##각이
##대해
이마트
똑같네
중국산
시멘트
공식적으로
##받았
버튼
안들어
성공적으로
망쳐
나서고
이해를
미친거
길게
모르지
사랑을
파산
##스팅
게임의
훠훠
##역에
공무원들
밥먹
##터테인
비중을
경제의
##기까지
원본
##으로서의
##놨다
환경단체
##시하는
통하여
유동성
일로
편파
수구꼴통
면접
장수
양호한
##영향
##들이고
##히면
숙박
뒤통수
여긴
##하가
##명도
##민당
캠페
이것들
##내에서
##들과의
##런스
판정
정직
##혁신
중복
##mer
뛰어넘
자문
##뉴타운
정보통신
노사
##hn
대우조선
안간다
##꺼면
##가루
##만평
전부다
나섰
누군지
반려
전망이
백화점
##시간을
##로스
##로서의
##위험
개검
많음
퇴근
타격을
소문
##동물
##기에는
##협의회
제시한
##능력을
의하여
##되었다고
##덩이
##만하다
딸은
연극
으이
믿음
별도의
못믿
물론이고
Br
##교의
초기에
원조
시흥
무너뜨
트럼프는
우회
하는가
군대를
받으며
##대장
거꾸로
Cl
##ice
근대
##셨으면
좋겠네요
같아서
유사한
##시대에
김영삼
##당했다
자매
반일감정
안드로
스파이
스프
크리
##원자
##알아
최후의
경향이
보내라
##오롱
##맞는
직권
또다른
걱정이
##렸네
##병으로
##브를
##공사의
똑똑한
포기하고
바뀔
하부
국가는
##층은
##간을
고무
한건
##태를
##데요
분양에
##아를
구조조
생각해서
##널리스트
당신도
##할래
##제와
당일
##사한
간절
##ung
추석
판단을
말이지
일본여행
마친
늘어나는
폐기물
몇백
##자들도
거덜
그니까
제2차
연루
판사가
비슷하게
움직임
수단
be
##고의
안되나
이상하게
있었을
미국으로
진행된
아리
무너지
내보내
갖는
##더라고
나오네
##지대
절망
ㅁㅊ
명문
즐길
##청에
식의
##원들
VS
##사키
개도
2대
도데
해외에서
기자님
350
이것들이
3년간
사로
능력은
부딪
부풀
부착
서울신문
오류
##어버리고
정유라
댓글부대
건설과
누구는
1989년
##변화
보수를
중에서는
사재
##동과
##바꾸
세상에서
김지
피가
##ead
##다나
주위
##위원회가
편향
생기면
##기인
높아지고
##희롱
뒤늦게
##ock
의해서
##👍👍
받침
합니까
##68
##되도록
진실은
##맘대로
숨기고
##판사
추악한
비리가
분담
##언이
수신
##설팅
##한거냐
뻔히
공간을
##여성
프린
돈에
업종별로는
##세력이
망하는
참모
승부
의사가
부칸
##찍고
있기에
코믹
선조
right
고기
추억
맡아
##우를
안보고
열었다
무능하고
장제원
가공
##한이
##친일
내려와라
##상관
소프트웨어
##같으면
자동으로
조사해서
##되길
지목
할듯
줄일
안되는데
##보건
민자
신사
신임
UAE
밴드
##균형
당진
##ide
빨갱이들이
1988년
뜻이다
건설하는
##집권
나라꼴이
상환
여자를
잡지
식물
1호선
살아서
한녀
##타의
##채로
개장
있었다고
8년
지혜
##변경
it
죽기
갈등을
카타
##급한
im
살펴보면
종목이
박지
##저축
한표
3회
내외
개발이
##체인
그에게
안희
부른
##회계
시스템이
있으면서
일본어
잔뜩
쉽다
##지냐
역량을
##라구
1987년
징글
사라져야
##는거네
그녀를
연동
날씨
MS
마음으로
##막이
스페셜
김씨
세계에
조회
이천
##잡은
유대
아무튼
어쩌라고
Wh
방구석
OOO들아
##위해서
재발
땜에
활용할
비극
출신의
눈길을
##재현
사내
새끼야
순서
어용
국민세금
불리한
##인들을
재활용
장모
24시간
잘도
##되던
완전한
드물
된장
활성화를
뉴스에
총알
##군으로
##자유구역
##MW
##마루
있겠지
직원이
5년간
##로와
##오카
하더라
서초동
##다닌
가족을
##감과
사세요
##디션
##댕이
소릴
##버려야
전담
##라기
##위원회를
##출산
상하이
센트럴
밀집
등교
##사장
작정
Kore
같으면
헤드
저능아
지방자치단체
데미지를
##팀이
##년들
##버스터
center
##버트
든든
역사는
2인
##공이
##47
골라
##일으
후지
무엇인지
한방에
집계됐다
1분
##워드
느끼고
문재인도
##대신
##봤는데
##됐으며
세탁
따르
##했을까
성격이
3배
##업체인
구단
한은
아름다
끼리끼리
##파탄
인사를
그중
##만원에
한국도
기사로
레이저
sns
어때
수를
그녀가
싸우고
##DE
데스
수의
##전문가
만원
이외에도
##ail
##국제공항
##계에서
더해
숟가락
##테이너
책임지고
자기네
##AP
##밀한
##토를
이땅
상부
분야에
##진과
사용하여
아들은
관련이
##셔요
오죽하면
small
기능이
권리를
김수
맡겨
##ru
##하곤
##운동을
원장
클린
일제시대
LG화학
수렴
##생활을
15년
노는
##오리
찍을
보편
여신
##봅시다
Pl
진행된다
개관
당이
봤는데
수색
사는데
드리
장교
##급여
##32
손해배상
제공한다
##역은
##nt
##움이
많았
##영을
크지
심판을
##덕에
만들어라
국토부는
##연맹
죽어야
##밀히
전세계가
SK텔레콤
##린이
대부분은
요구했다
카톡
가이드
##자만
##호로
영등
##민은
결성
##순이
##ond
남조선
쿠데
##겟지
처음이다
박쥐
##one
문재인정부
하늘이
걸어서
뽑는
##들어서
동결
제7
새만금
운동을
수두
##나라는
ex
문서를
##전화
##하를
마산
4조
어쩌구
쳐먹고
가져다
해설
귀여
평소에
##논리
주변의
##키스탄
##은행의
중국도
챙기는
##다보니
##로워
##속이
검토하고
알겠다
조원
##로에
##지길
검사를
캐릭터가
결과적으로
민주당에
극장판
##문제가
##맙시다
##주교
##등의
썼다
##공작
##업은
알수
##어디
일어나는
상식이
##소수
##께요
외에는
##간다고
까다
##교육을
응급
핵을
병원에
수시로
동북아
이로써
발음
##퓰리즘
차세대
##98
봉인
좌파의
있으
맞나
욕할
엘지
##인정
코오롱
같지
잡기
개미
건설이
##위원회의
##소와
전화를
##세끼
한두번
##차게
너네가
모리
시민의
이루어진
형편
자신과
특성을
##진당
##집은
돌아서
분양한
pp
##경은
문제도
씨를
소식이
일대에
##사람도
##인간이
수시
##티나
알면서도
부지에
기대한다
유튜버
공화국
협상을
합리적
##없으니
말레이시아
성희롱
##봐서
##갈이
학교에
비전
추세
해야할
분석이다
규모를
##홀딩
계시
확인하고
중개
간주
클리
인간들아
아바
흑자
밝혀진
후예
소각
지역감정
정몽
준다고
##주식
아야
못함
불명
건설사들이
MC
공범
열린우리
##에서부터
활용한
##프레임
##뒤에
200만
일명
오락
포스코건설
사건으로
신인
반응이
낙찰
파렴치한
기숙
물건을
안남
피해는
##것들아
하다니
석유화학
돈주고
비유
찌그러
고전
줄이
##발의
태도
##인력
##tbc
선을
##보니까
교도소
##죄를
잘했다고
하고는
안락
본인들
민좃
내릴
기분이
일만
증오
##금도
한유
사랑의
들아
##ult
9개
불황
작사
못하냐
눈물이
##째로
촉진
많아요
매니저
##놈을
##주사
국고
이사회
대권
##페미
일조
확률로
세금도
##독립
수사가
효과는
금메달
강아지
##었어요
##ile
매립
독특
실체
가슴에
##에스
육아
윤총
##티즌
행사를
##면피
콘서트
들어올
못난
##궁창
고립
일일
권력이
##상과
##원인
아베는
##줄도
호흡
##ne
천국
카즈
스폰
말하지
진료
##포럼
도데체
윤지오
배포
맞음
기가막
의지가
연수
순천
좌파들의
가리지
점심
##되네
1980년
의장
##구도
##이노
아나운서
##투리
예쁜
사자
불이
폐업
총리가
##코는
산업단지
2002
##국당
영양
구조물의
특징이다
김문
꼽힌다
##old
아파트에
##였을
##타입
20만
왠지
##더스
Bo
독일의
##ㆍㆍ
오마이뉴스
이사장
관객
##국적
유투브
여성의
뭐하고
버리
정무
기존에
정치검찰
정책으로
한대
모독
##해달라고
표현의
계엄
##한을
6만
매주
안하
걸리는
국토교통부
##발생
그래픽
제정신이
##단지를
자리가
지저
소외
댓글알바
특별법
##였나
웅진
주거환경
보여주기
##OC
개수
전략적
본질
##안에서
##효율
사람과
물에
##기관의
엉뚱한
##물량
##받으면
악랄
붙은
보금자리
배를
##보게
##평균
##ere
일괄
만났
조국딸
동영
인스타
패치
##갖고
본격화
##케미
구로
##라나
생산하는
중도금
보육
약속을
소식을
##어지고
OE
장성
나이에
컨텐츠
국내에
아시아나
세계적
비공개
##사람을
도요
세습
##코스
네덜란드
가르쳐
교대
외곽
유형
##이요
##안정
살아가는
영등포
경제도
스트레
##ix
##법상
억제
중부
##측의
##고시
쪽빠리
인접해
쪼개
깨닫
식사
뻔한
불꽃
가야지
##해결
##부정
숙청
위해선
원거리
조망
##왔고
직접적인
미래의
안티
위탁
##조달
멋대로
시야
아이러니
서울중앙
개선을
125
나오냐
##라이트
다짐
대성
##화에서는
김성태
용적
조경
##니까요
터뜨
사라질
사용하지
의회
##설명
##또한
소리는
지을
분양가가
##남용
##49
잉글
##졌으며
소녀가
인식이
래미안
삭감
##면허
한층
한라
##읍니다
##수행
2003
콜라
패스트트랙
##프리
아랫
중국발
술을
최저시급
비아
유흥
승인을
아니죠
한국전력
##직자
행동은
양해
들통
안사
##46
##했을때
관리를
치열
##들만의
걷고
정상이
그러는
없으면서
##대가리가
5G
##78
우라
외계
참전
양도세
나팔
하라는
커다
비리를
않는다는
설치된
뉴스1
##포기
승격
공산당이
싶은데
야외
왜냐하면
반전
##달고
따르는
4번
##생긴
재해
비자
퍼주고
무난
사업비
늘리
포착
##포장
##데스
헝가리
해대
##플레
다카
##공제
총을
대깨문들은
이놈의
##나지
##과정에서
않아요
화면
112
##지표
##가구의
공급할
해병
기습
총살
##것네
아티
##려다
##측이
##장면
##의료
구조를
부역
원망
그런데도
정신적
것임
##처먹고
따뜻한
자폭
##총선
명예훼손
모은
실효
심장
정도를
##재에
보병
급격히
연산
준비하고
애도
이정권
행정도시
되었습니다
투자자
만들려고
이름의
##있는거
입에서
##거를
##할머니
입장이다
온도
총선에
노르
##남자
##스트로
##하는걸
그걸로
하고싶은
##한텐
항복
앞잡이
애널리스트
위치에
##슬러
다르지
지지한다
실패한
국제사회
지오
서식
재산을
조사하고
드림
대수
재단
##잖은
##ens
가톨릭
주니
그땐
##운이
폐간
보이콧
##여러분
##였지
외교부
내면
프라이
남긴
제임
비슷하다
감독이
폴란드
되서
##LC
젊은이
먼저다
모아서
중지
##겠음
듀얼
선거때
##낭비
모듈
##함께
기업인
##지수가
해준
##린지
버텨
박원숭
끊임없이
늘리고
##방으로
준우
똘똘
##소비
##편에서
바둑
천황
문통이
##름이
집사
분양할
마찬가지다
##박살
##주나
건축물
마스크도
탄핵이
다하고
대원
너그
HD
방식이
얼음
빼면
리버
전액
소울
문학
쳐들어
만일
108
마비
각본
##TE
사냐
아시안
폴리
##발로
희대의
차익
##무능
트로
소장
화웨이
현안
##분한
누나
##아내
바깥
##해줘야
##드네
일할
돌아갈
선별
되길
가는데
미쳤다
미래는
##리아의
##인지라
교묘
##밀리
##등에
##서와
시작해
이유도
바꾸는
높이고
거는
한자
##같아
편이
순으로
강연
수두룩
감찰
지원이
심심
##기부
이석
해수
kbs
##데다
귀신
##족을
정의는
3인
스쿨
##YP
방호
드러난
나발
##학회
풀이된다
트레
창작
있는것
낮춰
20여
마이너
윌리
##가는구나
디스플레이
##설치
##행위를
도시철도
공급을
조립
치솟
종북좌파
한번에
망치고
##시브
다음으로
이후의
TH
조씨
삼가
전국에
철학
알면
건가요
##두에
사진은
##판으로
##eft
이쁘
##인한
야간
쓰기
조사해라
발을
매출이
농담
무료로
고수
IB
##나마
해킹
삼아
##ance
##마련
광양
##웠던
이밖에
미야
##산에
모름
간단한
도모
##업에
유명하다
뒷받침
##없나
강제징
내기
놀이
있어야지
##됐는데
노조가
연세대
패러디
당했다
행정부
##되었습니다
까발
눈깔
중장기
페이지
생계
도배
여론을
공부를
예상했다
쪽이
115
정수기
있을까요
##오니
##징글
##당한다
얘기다
물어뜯
떠난
##애가
좋지만
##나라에
##함의
##폭력
건강한
정신차려
우승을
않는데
주행
##풍이
##짓은
##엄마
쓸모
치면
신고리
Ex
처음에
##치는데
##는지는
인공지능
생각으로
As
당기
차이를
리스트
쥐어
국책
국민들한테
기관총
진출을
##주택공사
친한
사이가
##RA
본부
직원들
오랜만에
신재생에너지
인구는
Re
노하우
##열이
다이어
##오프
영화를
질투
마지막에
이라면서
누구냐
에이스
넘이
##견이
##일텐데
비참
마이클
냉정
했더니
법에
개념이
김정일
발로
뉴스를
똥을
똥개
##틀러
가산
등판
현실적으로
강력히
회사에
못하지
부르고
찾아서
최다
경제성
찾아가
철면피
될듯
##하는것이
기획재정부
고졸
Sc
갖게
##색으로
깨진
##채를
최근에
민심을
침투
쪽발이
##현실
파고
고개
말아먹고
감소한
홍수
벌을
기업과
조사한
보수의
엇갈
##OM
실력이
##만들고
언급한
##스레
무렵
줄을
가전
중점
싶네요
##심에
##위와
외출
시바
박영선
##나올
좌빨들은
##타이어
일본제품
##산다
정체가
세제
##세포
##민들
##자면
다루는
##롭다
이하로
저질러
정은이가
관행
##양을
##일때
##초에
데이트
##해보지
기원전
##을거
작살
예산이
그만좀
##싫어
시궁창
부정부패
##업소
##줬으면
존재하지
오바마
내리는
##약한
들어선다
근본적인
박스
##와대
건강보험
원인을
AC
##가능한
지낸
##국장
공개된
까불
사용해
아쉬운
사라지고
제국의
확보를
어디가
클로
살리기
##터는
거더
안그래도
##없냐
나와도
나몰
산책
유우
레인
무단
전진
배울
부친
폭격
마니
구조물
내의
찍는
트집
나타나는
5조
얼마전
사거리
낙선
##드나
나왔는데
논쟁
앞당
블로그
득실
그돈
구출
상태를
빨라
2시간
나가고
##합을
새키
##통은
##😱😱
이뤄진
정부탓
사망한
##이하
##학규
답다
##te
##왜란
원인은
은평
민주당을
잘사는
소식에
7시
참여할
치러
그랜드
보나
글고
##나오는
##지원금
썩어빠진
Max
21세기
1기
##기술을
40년
사과하고
상주
##케이션
##리던
0x
한유총
##들지
코메디
탈을
공정거래
부유
바꿨
책임질
MA
엘리트
DJ
##주의를
친척
불의
기어나
로또
몇개
##되었을
분양이
아이콘
문제야
##IP
나라와
별거
My
출현
말입니다
##ale
그룹의
##42
##일이다
아일랜드
인성이
##지역에서
##우며
##지않나
##문제를
짖어
주차장
##민을
##편은
증여
##열을
화려한
김병
아마추어
##종은
언론에서
성장률
그러고도
메카
이긴
##시키자
본인들이
기체
##못차
10만원
밝혀졌다
편히
##경제가
##족의
##죄가
##주공
비가
곱게
##였다는
유아
맞아요
잘해서
신용등급
감지
소매
파이터
면에서
그쳤다
##들과는
사무실
##대면
지지하고
믿는다
주시
단어를
담긴
정동
주인이
튼튼
하다하다
##지않는
웃겨
연일
헌법재판
자고
한꺼
##족이
취직
##59
짜증난다
관세
유성
밤에
맞냐
못배
##76
##파이어
##방의
활약을
전라도는
최우선
투자해
##학급
그다지
설레
주둥아리
저럴
기자들
##즈키
정상적으로
댓글은
##블릿
하겠냐
##오게
카자
오프닝
발생했다
에도
포퓰리즘
개돼지들은
좋았
##났다고
미워
##티비
김승
두들
어설
##책이
11시
시간은
그치
실질적으로
차원
##을수
세금만
주무
경쟁이
교활한
적에게
중의
주위에
##ase
조준
자식을
살아온
소년이
##인지도
##림이
기반을
7억
Vol
의미로
나지
생긴다
사라져
날라
하지않
재직
최적
아세
윤리
가도
줄이는
스키
이익이
중국한테
증설
##곳으로
지원하고
더듬어
받으면서
NC
승차
##있다는
안중에도
참석했다
올리지
반사
##보에
여지가
잘만
차로
보행
못가
순수한
선택을
나치
교각
상대의
##영은
사살
사전투표
##항에
찾은
##답시고
##립시다
라이벌
정신승리
거친
대출을
Se
##님도
##티어
벌인
##ime
넘기
##전에서는
윤석열이
사모펀드
인신
안습
후안
##자재
##ish
퇴임
##LL
##센터에서
사용하면
가세요
국민세금으로
쓰레기들이
외국인과
##거늘
추진한다
망상
되겠다
명중
생겼네
핑크
비판했다
실용
권한을
용의
전동
헌신
##법과
실업자
##석유
충격을
##목사
끝판
80년대
##부르크
약점
교주
추진해
싸움을
##독한
않았는데
너희는
LS
상의
##레나
su
있겠냐
영종
전반적인
뜻은
민주화운동
PR
유시민이
##손으로
2부
시민들
##현대
용병
반포
많으니
##대학원
회의를
##야할
정권바뀌
다물
##라이언
##반이
CCTV
자부
아이들은
left
##버리면
하던가
원유
있었습니다
거래가
둔화
##Dir
하시고
국회의원들
되었는데
이득을
많지만
표정
우위를
60대
조건으로
한꺼번에
aDir
##그린
남는
메갈
2의
##님께
##발전소
모자란
기절
피부
브로
났다
##인인
##ET
핵무기
미치지
폭파
망치는
이뤄질
정세
신선
##진에
제6
##마에
네이
입맛에
900
구속영
길로
전력을
빛을
시민이
##것에
##카를
2세
sp
세상은
지금껏
사나
여러모로
도장
KO
떨고
가능하며
##미디어
어우
어긋
종부
##지도않
마디
망하고
클래스
태도를
더럽다
못하니
옳고
##할때는
클라
내각
배워
##많다
상하
##와이
아작
복선
2000년대
##어와
터미널
남들
보석
인권을
간호사
DNA
부패한
##관리를
me
기자는
끝나는
불참
위하는
이전의
##GM
최하
터져
tr
주공
##씨와
##한국당
들려
정글
초중
많다고
##기관이
친문
나오기
현대자동차
공식입장
##하고있네
기둥
고민정
기업들은
##유공
##변을
자신도
상처를
정류
좃국
잘못은
이미지가
지켜보고
##료가
거리는
보유세
전날보다
차원의
얼마든지
디젤
##진출
##79
##혜선
않을까요
여럿
FA
##직에
진행할
AS
장담
표본
집행유예
강화를
있는건
협의를
공업
##ost
고구려
##하였습니다
암흑
애미
울트라
##스트라
밝은
그라
초록
##이구만
재고
피고
정치인들이
사단
조사됐다
이정부
##산은
힘든데
피할
##오의
시작하는
쩝쩝이
판을
한결
팀은
##하되
운영을
국민혈
임종석
보이지만
말든
실시한다
약국
엄중
##ink
여왕
구성되어
외신
대동
실컷
##없게
배우고
##저래
타협
워크아웃
시점에
##녀가
##보장
자를
##쓰면
블랙리스트
경쟁률을
##란을
간호
대표적
근육
시절에
인적
정상화
##발전을
싸가지
실명
##로서는
들여다
김준
##대통령이
##시에서
여자들은
##장사
시선
시중
사야
주가는
슬로
단면
허위사실
이러고
지킨
##같음
엘리베이터
##방안을
##하늘
재검토
인형
불필요
목숨걸고
하는거야
##ork
교량의
##없애
특권
##음악
##블록에
적으로
##43
##환을
##카는
##보안
잡았다
건설현
남았다
##무지
버는
빨고
we
##내내
자발적으로
서비스업
일부는
쓰인다
살수
##끼가
주장하고
호황
댓글로
선택한
개는
##일까요
불만을
불린다
네티즌
1년에
하나라도
##지역은
겨냥
##태우
전국적으로
이런기사
##되는게
유연
추산
쓰나
하겠다고
눈감
폭주
마귀
피눈물
##ize
##ence
소상공인
새겨
아직은
##만든
##라스틱
입단
모르니
글이
셔츠를
키우고
버릴
잘해라
마인드
상세
올렸
포스트
나와야
전국에서
##aw
##탄압
정해진
내려와
거임
박상
만나는
##리온
##류에
##할거다
##선택
##효과가
도지사
처먹고
##돼서
현대산업개발
감정을
비판하는
##보내고
동계
평화가
이완용
내비
공론화
##액의
로비
웃을
없잖아
해적
##채권
증권사
징글징글
들어와서
부가
점수를
전신
쓰레기가
##니는
죄없는
##했어야
성적을
채로
##셨네
어디갔
먹고살
박성
제출한
##복합도시
이가
깔아
주목을
##5천
구하기
환수
##려구
##랑은
한민족
스킨
이치
임차
더구나
증가하고
Su
단독주택
##교체
검사가
말로는
##스톤
100억
특별히
시켜서
##디움
싫어요
##냅시다
손학규
지랄을
교장
##거래일
부끄러운줄
황대표
##대우
시민들의
유해
##ㅂㄷ
그외
싶네
##하던가
예로
때에
뭘까
##쩝쩝
국민도
AR
그러다가
한마디도
##연은
경기는
자슥
##누가
##교가
사주
##천군
고스란히
Ph
##man
##게이
##노무
환경부
안걸
AT
발전에
##침을
12개
저런거
치열한
미달
직원들이
포기한
진행하는
##질하는
조두
##다니고
살릴
남해
올리면
##실의
##르네
##다시
갈등이
김건모
물질
##월한
현실이다
##소프트
반해
컨테이너
안찍
##정밀
하자고
성능을
##댄다
아침부터
SK하이
단점
휴식
에너지를
안되니
백지
나타나고
##곡을
부근
복무
벤처
수익성
북한도
예쁘
##뱅크
신뢰가
쾌적한
##방은
186
CV
고3
물량을
##해보면
보건복지
도내
##넘어
무방
##겁게
비주
고려대
소송을
국산화
##근성
##iew
이런데도
패키
검찰총
5배
한자리
미우
병행
##72
##위병
가지는
차리
##복무
##팀은
원의
당시에
지인
##을지
서초구
오스
구한
인생이
2001
##매국노
정밀안전
지원해
살길
팍팍
에코
추가된
하나다
3기
경찰의
허나
##되야
후보자
시에
##융합
임진왜란
저하
기관의
선동에
녹취
##일지
개인정보
울고
선량한
알바들
자기는
브루
인간도
이렇게까지
무기징역
수면
##차익
##린거
싫고
협력업체
클릭
##oon
##ank
입수
트렌
이번기
넘치는
사탄
##했겠지
##터의
빤스
자유가
6억
흥행
가볍게
##ah
잡아야
##센터를
스튜디오
안녕하세요
바꿔야
생각에
광우병
요구하고
되도
양승
동방
##제재
같지만
왕이
##변호사
마이크
수여
생각해봐라
한가지
해줘야
느낀다
##럽고
더군
맥주
국군
넘들이
계정
리뷰
##만하는
영업이익은
목적을
##성향
맘충
때문인지
##경도
정한
죽지
싸고
눈물을
버릇
법도
##듭니다
##업체가
##드냐
감독의
세웠다
##차도
강하다
2022년
102
##되었지만
천천
연구를
베이스
지적이다
명목으로
황교안은
##제일
이제부터
##리야
1986년
겪어
마련해
방송에
##놓는
아무말
##안해
멈춰
##루를
실어
방문한
##질하고
본선
##렬한
경매
낳고
제공하고
중형
##심으로
김원봉
만기
##간담
노력이
또라
행정중심
함정
후계
동양대
128
주었다
학대
##취소
OECD
맞으면
##들에게도
##가치
##주는게
잇따
##들까지
유인
바보로
되돌아
어디다
부수
랜덤
나름대로
불렀
플로
백신
현대모
강화하고
수준은
신년
GM
여파로
##새가
아래로
촉구했다
늘어났다
심각하게
하도록
초대형
고유정
##해야된다
##사단
심해
차려
##자한당
##재난
##지하철
우연히
전국의
유감
가격에
2시
##크래프트
청와대와
여기까지
페미니즘
##우파
쳐넣
미사일을
던전
##제국
##전히
맞지만
바꿔라
##어야한다
경제정책
구독
건설공사
##중인데
루머
##호와
##맞은
가세
멘탈
시리아
캠프
떡밥
했다면
구속수사
##법도
반대를
##ome
##들에겐
##시원
##붙어
입대
공수처가
##대행
위험이
##해야하는
의견도
##가기
떠나라
##단위
시너지
해임
나한테
신화
급식
따른다
타운
##구치
대학원
구청장
연면적
트랜
택시기사
거세
##팀을
가면라이더
어렵고
##위권
사찰
파크
하루종일
##그렇게
발코니
청춘
있습니까
레알
통째로
##사과
걸림
후에도
재현
아는게
6시
주인공이
##담보
##려니
진행될
무리한
요구를
31번
기업으로
최순실이
뿌려
##사다
##놈도
몇달
마침내
입다
240
개인적인
##절을
175
원수
이듬
##접한
돌리고
유착
UN
새삼
주택건설
나루
##라와
망치
##맞아
메탈
배부
떠드는
##연수
##중계
소지
신청을
##공부
소나
##주행
##이란걸
##인거지
청계
부정적
성사
일어났
녹지
군림
##나라를
##강화
영문
알겠지만
##권분
지원할
모자를
확대를
##가량
새끼들은
보냈다
서민들은
##여객
당신들은
경찰서
프로토
##실패
자들
조국수호
재인아
경상북도
사업장
52시간
로맨
##인구
쓰레기같은
표현을
나쁘지
꼬박
취업자
사이다
기억을
##소서
없애야
20분
##못하게
된거
우상
대표이
220
지붕
틀림
근거가
##었구나
스킬을
아끼
##지구는
명령을
보내야
버렸다
10명
진행한다
덕분
섬유
없으니까
컸다
기뻐
담보
##하마
##것임
현명
##넘들이
토착왜구들
##활성
##살다
돌격
노숙
광화문에
바닷
결혼을
승용
지역주민
##플렉
관계로
news
찍소리도
잉글랜드
참여를
가이
##현황
드론
##oo
##모르는
야생
##란이
SR
##끼야
익숙
호수
설명을
##차의
##결정
장관을
권영
척결
##서비
짓은
##조성
정원
##야당
확보하고
가나
되는게
메달
얻었다
넘어가는
분노를
전수조사
##역의
##의원이
가벼운
봅시다
영주
##견을
PL
하루하루
##할줄
##63
주방
바른미래
일본에게
오줌
있었기
내달
##체크
유령
##폐지
저런걸
은혜
때리고
구해
도주
벤츠
70년
문제점
떠넘
정보가
한복
##ave
##터테인먼트
노리는
공격하는
실검
등장했다
마츠
##집어
삶이
2년간
최우수
교육부
나간다
대구시민
않는다고
가짜뉴
##청사
돌고
압수
신상공개
##스킬
##71
내뱉
185
묻는
##바이오
문재인씨
##입학
장비를
무척
돌리는
화해
정책의
총기
##공감
조세
##올려
한국으로
거예요
##파워
##iss
됐고
작년에
대의
유의
아이디어
불공정
사법개혁
전성
결제
뽑을
자빠졌
##으라는
##교는
대통령에게
부합
추구하는
팔아서
선거를
노골
이듬해
##널드
강용
문재앙의
자재
개돼지들아
같다고
##제도를
고리
Fr
대단히
##ick
정도껏
전투에서
재배
매크로
학생들은
그립
펑펑
안전하게
붙잡
고장
외국에서
심각하다
동쪽
문준
##릭스
미련
틀니
##하던지
피로
자손
집단이
올려서
영세
정치적인
커서
지원한다
짓밟
글쎄
##상이다
이나라를
박근혜때
##MA
늘리는
묶어
복잡한
속초
흑인
##번지
##태가
설리
나옴
이데
있는거지
순실
사퇴해라
천주교
루트
국비
##하시면
싸지
적혀
육박
회사에서
전멸
민간인
연휴
레전드
##뿐인
놀이터
긍정적
경기에
기간이
앞장서
##인양
조성된다
경영권
이력
의원의
내년부터
만주
노선을
이원
바닥에
이런일이
##차단
윌리엄
가문
전격
##생겼
때문이라고
##빠는
되니까
##리안
##구녕
처참
##일만
따위
##가가치
둘은
안함
되었다고
학생이
10년간
##반하
소속사
일제히
##있어요
어려움이
맞는거
30만
순실이
##미에
바닥판
##어스
올인
한신
진행되는
##pl
저의
거라
109
보상을
초고층
답답한
나오게
##주라
개요
냄비
우와
무엇인가
처음엔
DA
별개로
##변에
##이었습니다
물러나라
랜드마크
국영
웨이
극히
크로스
##orld
##우주
국제적
생각만
빚을
##함으로
##롯데
114
불구속
테이블
##대갈
죽어서
간절히
FIFA
음식을
이어졌다
열렸다
지방의
거제
오지네
자의
##로당
살던
끊어
아이템을
포럼
##편한
당기순
타락
미흡
연내
좋겠네
귀를
오산
안쓰고
##았으니
연쇄
군수
때려잡
일으켰
어처구니
##니스트
야기
믿음이
##건설과
개똥
슬픈
적용된다
##청의
기대할
노인네
방출
박용
민중
##나라로
아버지는
##점의
침공
생각함
미뤄
시작해서
검찰과
떨어지면
천막
확대해
듣보
부족하다
Mar
##수아
정차
LG전자
전제
불만이
mathb
##했구나
피의자
XX
의약품
과감
미얀
했어
조구
제임스
양해각
인정하지
안된다는
##가진
측이
호칭
위주의
##처가
##링을
하겠다는
내게
마련했다
from
할텐데
이걸로
욕도
##소연
##보스
강정
바라보는
계절
##한걸
합의를
전기전자
행동으로
정신못차
지성
있다는게
자랑한다
##곳의
##사회의
머릿
자한당과
2루
##히게
왜놈
이따위
아르헨
구할
나가면
나타난다
##통과
좌빨들이
약세를
재계
유지할
민족의
서쪽
공사에
##만원이
##러스터
##첨단
##000억
이어서
##것지
비중은
##두기
미스
##티아
##님과
정복
아니에요
넘어갈
##들처럼
##급의
포스
##례가
장점이
빌어
문제지만
거지같은
##주년을
##당해서
말라는
##지던
##산으로
지니고
될지
안봐도
##하고있다
##랭크
##새끼들이
##코드
추격
##그대로
##터스
동대문
개혁이
장기적으로
카지노
뭐라도
사업자
만들겠다
올라갈
최선
아침에
판에
##졌다는
스미
군대도
실력을
하실
손해를
청약을
안성
새퀴
6천
비싸게
나타내는
독재정권
1985년
##중개
반격
곳도
봐서
##님께서
웃는다
플레이어가
##안된다
천천히
##세스
WHO
He
특기
적합한
##반의
실수로
##프로그램
내편
안동
뻔뻔하게
이유다
딸을
흰색
##식에서
##그럼
금융위기
##폭행
쇼를
잠정
개소
##작전
정신들
##난을
논리가
##정말
서울시가
몇천
보전
아까운
##디가
알아야지
포르투
도끼
##oy
용도
##반을
대변인은
##00억
고래
##ree
선정된
보이냐
8강
해피
장치
##자녀
있었으며
이의
언행
##업자득
장하
##할수있는
국민에
갑작
##들었다
머리는
어쩐
왕복
##건설협회
터질
안타깝네요
삼각
라이프
생각하냐
농협
조리
즐기는
개인은
의료보험
##동기
모를까
##둘러
##았다는
힘없는
논리로
해운대
##사냐
##실과
쓰게
발표된
##될듯
리더십
##좋다
입장에선
화장품
이집트
불투
대고
돌리
도시계획
아버지의
좋냐
##열면
대응을
##르르
문희
##철이
보너스
##겠고
##못할
앞세워
지극
탱크
화력
##다닐
at
공급한다
규제가
##케미칼
준우승
볼수
##ich
##용품
국가적
질문을
닫고
부모는
레이더
보는데
##범위
스크린
ㅂㄷ
일본군
심화
요양
사람한테
조선의
올라온
나경원은
의무를
##급이
파이팅
##넘은
인종차별
즐기
언플
##받아라
에드
에어컨
##요청
뭔소리
한중
시원하게
제법
적반하
##74
##싶네
통산
##을려고
이와중에
중국인이
조국도
기껏
스피드
압도적인
사학
속이고
##딩이
바가
여권
로그
보물
짐작
생각하니
탄소
악성
##ition
기대감이
##객이
정권에서
##지역을
국민연
꼼꼼
압력
부산시
골로
4개월
슬픔
탄탄
##ATE
이르면
개한
##노예
대우조선해양
불이익
약간의
##리포
성형
얘네
즐겨
##도시로
4명
##미와
높이기
죽음의
본토
태어났다
미세먼지가
그래요
많으면
##택지
90년대
원자로
흥분
축적
##속을
사토
##리츠
현대제철
##바랍니다
##없습니다
##건만
강제징용
##보조
것들을
성능이
여행을
종결
##IM
경쟁을
##만달러
##문제는
2개월
실버
##olog
차트
필요는
이곳에
저러고
박사모
개표
##해보자
질본
인민재판
항공기
바뀌고
##줄을
말고는
##봤냐
방에
했을까
적다
약탈
단지가
파격
한발
배고
##었을까
##국민들
LC
공고
##껀데
##정상회담
세균
다이아
##바가
##나라의
영감
대목
호응
각각의
배우는
##리지말고
누구보다
##는지도
KBS2
지켜보
몰카
감정이
##라노
다행이다
초창
은근히
맞물
##피셜
##세도
나나
생각해보면
딜러
가담
메모리
경기침
다시한번
만약에
보태
정권잡
11개
떨거지
re
마리아
나서야
##았어
대개
보임
않으니
전기가
헤이
수성
자업자득
타당성
선택할
백제
유전자
##주는데
성명
프랑스의
##이름
##실하게
신재
예언
외치고
바른말
처치
LED
##밸리
속도로
끝장
아이는
터트
##이야기
분양가상한
모델하우
너무나도
두루
유가증권
얘기는
더군다나
뒷통수
##시에는
쿠팡
먹는다
##적으로도
불합
뭐래
요청했다
##임은
안되냐
##비어
시인
논란을
##것인가
억압
죽을때까지
얻기
하자는
하던지
##새끼야
인정할
##전도
정신차리고
##급을
일본가서
완벽하게
##모씨
7만
유희
비난을
지롤
##하더만
많다는
조선일보는
##측에
해결을
어벙
군부
공정하게
##하느냐
Me
##입을
도보
민주당도
칼로
##경에
위생
투명하게
누리
획기
짝이
##그렇
방한
대상을
##지금
##로봇
소독
##팔아
숫자가
##서치
돌아가신
호도
뽑아서
담당하는
못했던
GTX
길어
##당초
##있었다
실화
금융감독
##스포
##ake
외무
모르면서
방안이
##백을
시그
##경제를
남발
공격이
##거리며
참사
##강을
##하기전에
동등
죄송합니다
지난주
별도
남기고
##나라에서
종특
##DB
키운
##자라는
대비해
##년아
##세여
보합
##들게
##하다면
예정된
물품
여지
안일
개탄
##리우
동화
보여주었다
##증가
괜찮다
할매
소문이
거점
기쁨
나가야
치료를
##랬다
학교를
일환으로
##권분립
조감도
차이는
경악
일등
아닌것
##판에서는
횡단
되야
방송국
##것냐
유상증
##우니
코스트
망한
##까고
##62
눈으로
왜케
퍼포
스포
이빨
제고
2분
필드
가요
조약
혐한
이대
기다리는
##가격이
##주제에
남자들은
쓰러뜨
시행령
웃겠다
##파티
사귀
노망
부엉
##일수록
불쾌
##희가
수요를
동행
##준이
금수저
있겠다
##LED
심히
지속될
주재
노리고
이름도
개나소나
하나님의
찔러
국회가
##6가구
##좋게
스트라이
두개
환경이
소리하네
추하다
하여야
사흘
만만치
쓰여
##제조
팬들이
업계에
##영의
초점을
참여했다
##서스
토왜
있었다는
리비아
2021년
조짐
##야구
##슈타
##찬다
결과로
휴게
송전
고덕
있었으면
정화
도우
나누어
요코
##축구
장본
여자도
만나고
게스트
안뽑
차리고
이야기는
반환
##묻은
반성하고
투입해
귀가
않았나
사실이라면
국가로
##ational
거북
건설사업
##경험
##의혹
감염자
현혹
읽는
kt
도시락
서울경제
겸손
어째서
빨개
닮은
속아
핵실험
하지도
##대왕
부상을
세무조사
이후로는
배송
예선
넣은
이국
끝판왕
##코어
수사에
역량
##사항을
키스
내밀
저번
회생
더샵
##노스
경기장
기밀
넘는다
네일베
개그맨
에혀
번도
##라는데
언론을
안으로
격파
카드가
동정
문정
##먹기
당을
##비행
위치하고
높일
꼬라지가
##겟네
태워
##가냐
##회관
토나온다
자칫
##줍시다
환상
인명
##더라구요
혼합
##했어도
이상황
유능
##own
거짓으로
상승을
있다니
이새
도와주는
한통
심하다
고개를
##거지로
##위원장이
사막
con
습득
##여개
농구
##무는
달라진
더러워
정시
##유기
잘먹고
선동하는
SOL
##완화
독특한
##감이다
싶을
##벤처
대다수의
다니면서
제발좀
언젠가는
허구헌
이번기회에
##지주
팩트는
카나
김명
##브로
##용은
##시설과
##ach
##즈니
생각없이
줄서
A4
모양이다
제도가
치사
포털
아휴
양의
블라
분양가를
당의
의심이
천만
##데기
끼워
업종이
유신
학력
서남
##됐다고
안민
내일신문
분석이
현명한
##지않아
##불매
추가바람
지겨
기여할
이외의
롯데캐슬
숨쉬
##교도
셋째
일기
맞춤형
##론은
하수인
모금
위헌
손절
마루
당당히
##국방
##회로
괜찮아
쫓겨
사회악
##산업은
##구야
커질
##미네
시급하다
김연
낳은
잠잠
살리는
그놈
궁금하네
##1억원
여의
불로
물량은
대안을
104
##도르
일가
##이야말로
문제점을
##조심
이어져
경우에도
손실을
대운하
산림
##팀의
##중독
##된다면
##소장
##한거고
좋겠어요
사도
노회
치유
##이는데
있을때
분노가
OOO이
정당이
군의
관리하는
사지
##미콘
카운터
우스
##통화
현대건설은
백인
생각한
##라면서
마음의
실물
니미
추후
선두
##이제
한미동맹
며느
##ug
존경합니다
##기간이
부임
##승인
나타났
성수
##아베
##절차
특이한
언제고
필요도
##아파
대명
못하네
##포함
왜이렇게
민심이
BB
고위공
과정이
##나봐
비열한
##하자마자
재앙이다
해봐야
뒤로는
뒤에는
앉혀
사례를
술집
##54
니도
##주면서
격추
청정
열받
##자키
전투를
공매도
##리얼
개개
스위스
##이한
여러번
뭉가
도중에
대구는
건보
줘도
드럽게
올라가는
무기로
죽여야
저작권
조건이
뭘로
털어서
주목된다
팔레
이경
애국자
##창고
안전관리
잡아먹
##식과
##에게만
동구
자사
기성
##3억원
ㅡㅡㅡ
자처
장남
버렸
웃는
##계층
영업이익이
정체를
##국가가
우동
오타
추한
약화
견디
트라우
가드
##심도
##증상
쇼핑몰
양육
대가로
아트
##하냐고
종류의
We
희귀
4위
박수를
1984년
구석
김형
##이라는데
출신으로
행복하게
우선협상
안전점검
##고발
3분
시설이
못하다
줬다
전도
2학년
당원
불통
방어력
버틸
포토
##스포츠
187
##상가
행성
총수
들지
##이들아
담합
1990년대
DB
챙기고
헷갈
##영업
선정됐다
키울
탈취
Be
중학생
의원들
1학년
굴러
시기가
매체
말도안되는
##갔는데
원흉
경전철
##롭지
jtbc
백종원
##광고
대우건설은
편곡
존재가
퍼포먼
색출
걱정이다
##안하면
적용해
수준인
원자재
유언
##듣는
##에이
말하며
받았고
비교할
멸종
뒤질
시위를
견인
하락세를
##분리
위해서라도
막지
파이어
너만
코스피는
친절
발생한다
새기
게이지
삼성전자는
기를
겁니까
신안
써도
플라스틱
##풍을
가족들이
##션이
##강의
New
집은
##노선
사정이
이내에
##치자
##에너
내부의
형님
숨기
판타지
날개
가능하고
몇일
##모르고
##진행
하태
중산층
찾아볼
생각하나
최태
##방어
호위
무선
##청에서
##저우
##간접
##될까
있거나
##DA
무고
마스크가
응징
간혹
##기소
이간질
이것들아
기사도
참여해
##az
주민들
못하도록
KCC
도시개발
##할꺼
건물이
##ert
##이라고는
##구매
정의연
##출연
미래통합당
0으로
CG
##타당
문재인이가
집어넣
두산인프라
조공
하트
##시한
애들도
##억을
사항은
줄고
높았다
있는데도
##min
인테리어
AK
단단히
##교류
YG
##대원
자이언
맘카페
조치가
##자리에서
시청률
저지르고
가라앉
발생된
노인들
솔까
##군사
심어
저출산
편안
다룬
방안도
##ther
소설을
아니더라도
대피
##안하는
수감
##시게
##부양
영향력을
##ivers
되었으며
##르며
잘하면
이번이
선심
커다란
골라서
이어진
##강점
낸다
형식으로
단호
##소유
##자랑
집회를
##되었다는
도시를
해금
마스크는
김무성
##상황을
금감
권총
##눈에
이보다
EC
##갑을
담고
##불이
모델하우스
부총
##회사인
##리들
자식은
##000만달러
##입으로
짜증나
경과
그당시
쓰냐
컬러
cl
이쪽은
풀려
개누리
이기주의
안나온다
##방서
전체적인
생략
우려를
##같지도
폭으로
공사는
모두를
##개돼지
개거품
토요일
8천
비방
박정희가
인센
어쩌냐
대도시
계약금
수사는
저질렀
제8
##ater
국채
##해야죠
조사가
귀걸이
규탄
##회와
확대하고
##거네
##투를
대표로
연인
설치해
남동
##지않게
##전까지
##개정
##oll
이왕
유비
조사해
저러니
ㅂㄷㅂㄷ
클라우
도의
문화를
1983년
수월
도시의
##공약
무지한
계획에
##운을
신성장
씁쓸
후보를
##도에서
사항을
##자야
##믿고
마음은
개고생
촉새
##나오네
피아노
항공사
보여줄
밥은
쪽은
##진으로
##과학기술
SOLID
추가되었다
부럽
저승
나란히
##곡동
##말종
##지구에
평면
##길에
##랄까봐
지사
달러를
ㅠㅠㅠ
2030
치밀
##산업이
삼고
개구리
면역
했음
보이나
말이되냐
이상하다
상정
선수들이
##루의
##체험
##하였는데
시험을
모으고
##업계에
##청정
##박혀
답변을
건설사가
종자들
어두운
조두순
나몰라라
4강
버프
##바꿔
아닐까요
달리는
산업의
당연하지
어울리는
##2000
##락으로
속속
##위원장은
업적
##있지만
##할것이다
손자
##하십니까
##아아
쿠키
인물이다
전라남도
아사히
벌써부터
육상
##이라면서
##가인
무소속
것일
지나친
Pro
저것들은
경상남도
적화통일
말하는거
##건물
생각나네
소름끼
엄연히
속하는
##수다
##동력
##기레기
레오
연구소
작품을
##비서
시기를
관계없이
제천
한시
##ous
히틀러
치졸
강철
단어가
설령
대덕
처벌이
##후의
동탄2
##원자력
확보할
##유키
##인데다
##돈은
불거
내집
##법원
천벌을
없는지
##ft
##사업자
댄스
멀어
##냅니다
엄한
당신같은
##였다면
중대한
허구헌날
임무를
시작할
작업이
##에나
일일이
코치
파이널
##드릴
제외하고는
##조절
##본데
103
성역
##연속
##쉽게
원료
아메리카
알렉산
2번째
아니며
어지간히
하나님이
Ad
사표
##시네요
떡검
##MS
지형
충주
##되도
##팩트
여기도
가능해
##조한
yna
무리의
나타날
오늘의
##돌아가
뮤지컬
거둔
##신한
도시로
##하단
참석해
제네
보조금
마찰
관점에서
##됐네
벌이는
파악하고
안간
##씩이나
하는거다
비틀
야동
##테니까
헌금
신장
##짓이
서울과
쓸어버
##차원에서
굽신
수차례
콩밥
쥐고
대표적으로
적용되는
되나요
##간한
##사라
Jo
주류
##해야만
먹지
##짱깨
잘한다고
지워
전인
대깨문들아
결심
구사
꼴을
유진
개소리를
##혜진
이용하고
인센티브
네이버는
##투어
사용된다
느낌을
건설교통부
끔찍한
토끼
컨설팅
##글을
백번
##주네
버티고
자식들이
##하중
##TO
##회사가
몽둥
당부했다
##일가
지나지
##한것도
##공장을
최대주
##린의
극한
##련의
이기는
##여명의
지금부터
##들하고
해당한다
인상을
해마다
##커녕
맺고
높을
##잔치
답을
##계로
동원해서
##락이
필요하다고
사라졌다
##리콘
박찬
3학년
##여건
좋아한다
##멘텀
분석한
아들을
지키지
한푼
열린다
##96
팩트를
보이네
##고용
이어가고
용어
행정중심복합도시
건설할
수질
일정을
##개국
증가할
##고만
안좋아
자금이
번째로
구하라
두들겨
##시스템을
찾지
자랑하는
창설
##변이
촛불집회
똥인지
싫지만
호들
##온이
캐릭터를
##걸린
##써서
사람인데
돈받고
##나베
##모는
이네
##ㄹㄱ
##주군
한국에서는
언론과
CS
눈에는
##단지로
학생들의
돌진
##7억원
8만
싸다
SW
화폐
##호에
지금보다
##본부장
재앙이는
과정에
건설현장
흡연
##안다
담아
더불어공산당
갤러
김희
어이없는
##상태가
불편한
##int
표명
남기
##에대한
일회
야스
조직을
##당선
##하시네
목적은
##DS
이상인
확인됐다
솔루션
##드리고
들어야
##자료를
인제
우물
국격
##perat
매출액은
강구
조로남불
##했더니
한국인들
했어야
잔여
확보한
##겠느냐
했어야지
비판이
장르
##더라면
강점
신경을
계획은
용도로
하나이다
3분의
등극
소득이
##복이
##증명
스탯
걸린다
##리라고
도가
봤을
안드로이드
##anc
진상규
바위
역쉬
높였다
움직임을
유럽의
거래되고
판결이
사료
남에게
말씀을
더빙
1982년
차량이
무개념
450
챙피
##비드
##양아치
애는
##물어
개교
카더라
저놈
##평가를
##침에
##데이터
아미
삼성S
##심판
##이기에
바이러스가
누군가가
뭔지도
##천이
대다수가
안지
도적
안정적으로
##살고
기술로
##스럽습니다
즐거
하겠습니다
##당도
##거죠
안희정
좌파정권
준수
오스트리아
적고
보정
와우
확립
캐스팅
이제서야
과거를
개발사업
회장을
열쇠
##여명
바닥을
없었으면
아이스
데이터를
##82
문재인정권
##했잖아
과세
사라진다
우병
크라
##도없는
그만두
##전에는
##벽을
웹툰
굴욕
울나라
배불
열일
후안무
##US
분포
제보
##나를
CN
계룡
어드
평가다
##머스
아무렇
차량을
레저
일부가
선전선동
다닌다
4층
결정할
기술은
만들어낸
##홈런
편한
##키아
어이없다
##이었으면
쓰래기
Or
##문으로
##론의
노회찬
##치냐
우리집
##속의
##공학과
##죽이고
건설업계
노부
양념
포괄
여적
이면
황당
결론을
내세워
천문학
못사는
소수의
파일럿
##실적
세력을
##ook
본질을
전향
노선이
##위치
도둑질
##면제
외교를
무거운
##하십니다
할수있는
피터
장면을
내버려
##주들이
##없어요
##반에
##tern
학술
금융기관
부산의
교회가
장중
생기고
공개하고
##필드
골수
소리만
뜨고
##TN
##강이
##포스
##종북
휘말
막강
만들어놓고
신세
정확히는
누구한테
중요하지
않습니까
일주
장병
국어
마저
##에미
잠재적
부회장은
##세기에
교역
세포
300만
바뀌는
##제약
그런말
놈들아
뜬금없이
불평
휩쓸
조사되었다
##넘게
##들어가
9년
돌이
지구를
##없다는
대구에
대구에서
병원에서
측의
사로잡
##택시
##나와서
싫다고
애완
좃선일보
가뭄
서산
속한
에라
도지
동아시아
##대책을
이렇다
##방위
왕국
이외에
남구
진학
봐야지
정치꾼
필요로
GS건설은
##였기
무작정
달했다
깨어나
##연구원은
111
##ode
기부금
교차로
마법사
##노인
기기
하우스
나을
있던데
EBS
늦은
##음은
##혹한
두꺼
드립니다
##게는
거주하는
늑대
9억
관리자
않았습니다
난이도가
지나가던
누워
##크라이나
그보다
##권력
##채널
##효과를
역을
단위로
금융위
저소득층
닭그네
##균열
##열차
가족은
##문제로
기자의
권유
##눈치
더욱더
드러운
기피
##유출
없어질
삼청
##노가
포함되어
##무새
발라
비닐
등재
##이냐고
말해라
##범이
##받기
직접적으로
남아있는
써먹
##ype
될수
욕설
##베이션
싶냐
그림을
165
부모의
수출이
##라는걸
자들은
발표를
재임
자중
성동
법칙
쳐도
특별공급
떠들고
발끈
없죠
허가를
설치하고
se
스캔
카를
다리를
성접
드랍
##내면서
내장
한몫
갑옷
정신과
##ics
리가
여건
가덕
##직이
##여라
공개해라
##셨나
##씨도
##기업은
오라
지사는
오일
못하는데
##축제
이루어져
##결혼
잊혀
총장이
##아이가
앞뒤가
135
상습
##시공
지겹
16강
게다
##무니
채우
조국장관
5명
기사화
미츠
부류
텔레비전
##퍼센트
바람이
이루고
지역사회
지위를
한개
전반에
##벤션
반대하고
##도서관
두바이
De
##안되
주저
동포
남양주
사각
##결을
좌좀들
수십년
발전이
상기
가사
건전
파이낸
유지하는
크루즈
가성
대책은
TK
수평
지극히
모두에게
인물로
표현이
##가구에
##현의
7천
파란색
000원
머리카
##오르
UE
##더기
송혜
말한마디
돌아와
코어
우즈
##쪽에서
수치다
##탄소
결별
미친듯이
송파구
사재기
꼭두
판단이
##국도
어그로
변화에
안정을
분양하는
눈치보
구형
##셨다
##sh
백악
그러자
정찰
어디까지나
명명
포스코는
억울하게
Man
##삼아
사진이
네오
##하니깐
사양
##중에서
##티드
공격에
이뤄졌다
우크라이나
##어린
엉터리
##커스
배경으로
180석
입국금
발견된
##항이
잘못하면
캐릭터의
국회를
##신용
맞춘
ㄷㅅ
영동
다른건
##방문
도출
##모의
##료는
##니의
##였냐
그리도
##단에서
##치매
##이었다고
중기
##주길
할게
##신으로
단지로
밝혀야
##책으로
한국토지주택공사
##공간을
##키고
도서
하죠
현충
일본이랑
일제강점
##89
8시
50만
통하는
감싸고
##유발
##가지가
##길로
몰살
1981년
상시
쓰레기는
연초
꿈도
공영방송
그들에게
기술개발
무법
평일
만들자
왔는데
갑시다
꿈꾸는
데미지가
오른다
하시길
sk
제명
##자들에
1970년
이현
똥만
모스크
러시아의
##는거랑
편에
##작을
그분
##레이터
살다가
##일당
이진
사람이라면
홍위병
별다른
사옥
받아야지
늘릴
##들이냐
팬들
아빠가
##가리고
공동체
##올린
촛불을
##적이라고
가는게
있었나
퍼져
홧팅
뒤지
##주의에
아니란
갈색
푸틴
선한
식구
압도적으로
유한
착취
##86
##등으로
선동하고
간신히
더욱이
##카르
그래놓고
Fl
##일자리
말이나
부지를
될것이다
뿐이지
사실에
절친
외노
동문
토모
그돈으로
1979년
못하나
아케
세월호는
전의
##취업
문재앙을
셀트리
두는
실거래
##드레
##스도
오키
염려
속은
핵심은
##국제도시
기간에
지정된
하고싶
##업체의
온실
이례
국정운영
바보가
사용이
##루는
격투
##계수
부사장
화합
##꼬박
편법
##플러
위원장이
국왕
##전시
경제협력
해가
광산
불공
취향
실시하고
##이군
잃어버린
용납
미화
벌여
3번째
들어가고
것들아
성공을
그런게
권장
정우
만나면
요괴
우체
4회
성을
도민
어머니가
##물류
아카데미
210
의석
##모임
##VD
병력
냉장
온천
##나가고
자원봉사
그러므로
손바닥으로
##히로
한기
되려
천사
공간이
참여하고
En
실드
마술
수요자들의
이슈가
김여
총장님
편가르기
전지
##라에
버린다
농림
구간은
한국수
설립된
긍정적으로
인터뷰를
##일까지
드릴
1심
2중대
LA
터치
부부가
했다가
자영업자들
부식
설사
꼽았다
침입
선거가
갤러리
선거운동
낯짝
사회복지
현기
일으키는
정면
##고있는데
##뉴얼
통수
##시하고
##청문회
가능하게
시국
들어왔
아니라서
무안
##시리
우기
팬들은
##값에
한번씩
자택
국익을
도구
김의
환자가
예전부터
POP
다른사람
몸매
캄보
팬덤
##직으로
말하자면
하러
145
##ㅎㅎㅎ
극동
민좃당
양자
작가가
치가
문이
개량
##들이라
SU
나노
##투스
##년의
두께
##쪽이
##국가로
찐따
해달라고
스티브
수사권
NPC
깜방
추진을
원한다
야당은
##사유
##줬는데
밀리
혜택이
##갔고
미국인
회장과
불법으로
입주자
한것
뜻으로
인맥
지름
취급을
시부
모델을
제공할
비해서
##난리
재무구조
종로구
보금자리주택
정권바뀌면
비자금
교수님
해저
##편으로
짱께
최성
기준에
도시재생
##기때문에
전임
##을거다
상태에
노동당
혈안이
주된
취하고
##죽일
시작된다
평상
소방관
퇴진
주석
상급
CO
제안을
체제를
피해자는
예정이며
아이파크
##백만
평생을
달라는
##아닌가요
구혜선
문제와
도시형
차입
예상하고
##결과를
행동에
##는걸
생각해라
살려고
차질
임명한
기록이
검찰개혁을
##메이크
초토
분단
##질환
라이온
나눔
끝으로
압승
만들었
안통
##적일
노력하고
##정도는
구호
정신차릴
날로
정식으로
하는거냐
불러서
##되는지
범죄가
금호아시아
##마시고
##렸으면
##있는게
키보드
스승
##투자가
북한군
그레
##커가
게임은
대조
기반시설
새끼는
##바이트
죄는
##병에
##탱이
내용도
##꾸라지
벗고
노조는
이제라도
##만봐도
장거리
진행했다
##깨문
악마의
않다고
따지고
위태
낚시
##단지가
죄지
감금
##중요
발상
주장은
여학생
신부
훠훠훠
한류
증가하는
못받
유니폼
안받
지능이
안전등급
만나게
1조원
쓰레기를
일어나지
상당수
이전에는
도널드
##공사와
과태
##만원의
##나쁜
##거짓
님이
화살
Dr
##하듯이
단합
협회
신생
사우디아라
모자랄
공약을
마리오
##할만한
지뢰
개선이
설치는
무고한
봐주
들어도
패시브
변경되었다
좌절
달인
##수용
기용
로버트
##공의
국론
무마
포르투갈
올해의
##수주
위원회
##역세권
퍼주기
고려하여
품격
귀족노조
가뜩
사기를
걱정하는
진행한
라면서
어둠의
새끼들아
매출은
박차를
수련
이즈
접근성이
민영
나쁜놈
230
경험해보지
역할이
##안한다
모습에
이름만
지수가
교면
##97
못잡
온국민이
난무
##대금
라스
바라고
##도도
강남권
방관
운반
CF
관리가
매진
때보다
##렸습니다
다신
6조
유저들이
받으
분은
서면
하이닉스
성폭력
버려야
##LS
낙하산
파생
먹고사는
아이들에게
않는다면
돌아올
공산주의자
106
아파트로
숨어서
##네트워크
내용으로
고조
하는건지
명확히
이도
##성한
친구들
합계
맛을
하에
예정돼
사퇴하고
가둬
##테러
##♥♥
문쩝쩝
아시아나항공
전현
동일하게
##ph
타이거
##바퀴
나누고
##질이나
##보의
##소설
해결하기
도덕적
효성
발생하고
공직자
따지
다큐
문제냐
못했고
주택공급
부정하는
탐사
보기엔
##화해
민감
PO
##연기
##학기
약을
특집
107
##나보다
재선
ㄷㄷㄷ
##화할
전투기
가득한
편을
핑계로
넣는
##해볼
툭하면
오르면
방식의
삼성전자가
탐욕
리조트
뭐든지
국뽕
있기는
사업이다
절단
남지
계약이
그런다고
##나오면
아니겠지
중이며
##시라
##경의
망친
##시의회
민식이법
관련해서
광장
경찰청
명박
##주의가
1시
기사라고
민주주의가
공연을
담겨
나가라
##피를
아베의
##인수
이곳에서
##할땐
경제부
정밀안전진단
타케
김천
산출
이광
일요일
##들인데
사천
아티스트
뉴질
##꼬리
쓰레기들아
독재를
쓸데없이
사다
가뜩이나
뽑고
##동향
no
산업통상
##피는
인천시
살아갈
도로를
귀엽
##줘요
놀라운
생애
서울역
##규칙
거시기
Le
이동이
늘어난다
방침을
일들이
1945년
투표를
사촌
5개월
곡을
그해
말려
##같은소리
고려하면
포용
효율적인
##트맨
모르네
뒷북
스틸
##니를
미세
않으면서
##률도
과거사
놈을
한국은행
정의의
성조
점에
바가지
아쿠
유료
##결제
##장악
지칭
##여대
##은게
돌연
은하
##식도
##뒀다
데는
극단적인
우째
권위
흥미
못지
후임
뜻하는
뒤져
저그
조선일보가
##보지도
보호를
작성한
##ㄱㄱ
##마드
##멋대로
참담
공격력이
##폴리
원칙을
자발적
모른다고
돼야
##텍스
공장이
세비
내년도
5시
믿습니다
동지
##반응
신형
##ma
##중단
##타당성
서울은
대통령에
##분해
##저나
쳐맞
##41
고고
##속성
##량에
##공헌
카자흐
##호식
##절로
정신병자들
만드는데
보단
설쳐
##사전
집값은
의문이
여론몰이
##폐기물
가족과
되었을
##거로
##BA
부당한
##보네요
처벌해야
내용에
##묘한
징용
인과
묵묵
대기업이
위험에
##신탁
##이나마
임마
##사관
알리는
개웃
##애비
첫날
값을
정부야
##제작
털고
##불능
경제적으로
장난하냐
상륙
걱정된다
##항만
한달에
일상생활
##미세먼
공사비
벌였다
변하지
##산업을
업체는
##92
북한한테
보았다
무리가
##두지
동굴
국민들만
##어촌
일어나고
##시키들
##직은
별의
that
배워라
후보의
숨겨진
안하지
113
라이더
발언은
증폭
##졌기
조작이
범죄자가
##루미
거시
쌍둥이
지적도
가족의
##거가
뿐입니다
블러
##하셨습니다
5회
##상업
성지
쓸어
8억
##훈이
듯이
비파괴
뉴스가
살인자
카라
1년간
대깨문들이
불법을
##자이너
호기
흐르는
##원칙
끝난다
전기를
##패거리
사마
아이들의
건설경기
생각해도
It
통일을
돕는
가문의
##토는
후려
간다고
암울
사쿠라
##두를
경부고속도로
##놓으면
못하겠
정신차리
아내가
되기도
현실에
고양시
반성해라
과반
있니
본문
제기되고
개념을
로스쿨
전세계에
##거에
##배치
##체와
의원님
체류
구성해
극심한
정책과
##문재앙
##에서나
쪽에
##부진
두달
##잖냐
메디
욕만
경제폭망
알고도
북구
일입니다
타겟
검열
꼭두각
##스럽네
쪽발
공개적으로
김정은의
마무
가지가지한다
##디자인
하하
360
서둘러
우미
##타와
비용은
For
end
공룡
조선이
이런말
고려한
##저지
좋다는
##500
적당한
나오면서
투자에
THE
AM
주전
부끄러워
학교가
비난하는
##청년
입만열면
자체의
나발이고
미안하다
높아질
절실
##기업에
1980년대
설정이
##자리를
벽에
설치되어
BS
말종
##생각을
슬퍼
여성을
유산
삽입
집도
문제라고
비아냥
진정성
연말까지
택지개발
전문가들의
부분에서
##공구
기저
자한당의
##두리
눈먼
드레
책임져야
불과한
유혹
##신다
다른게
훈련을
##87
##란게
##UT
##인트를
경신
따까리
직권남용
군대는
##몰라
김문수
##재정
정치인들은
몸으로
##작업을
깔끔하게
광화문에서
하겠네
태어났
글구
업계의
투자한
한명도
갇혀
기간을
자작
직전에
막내
사라져라
의도적으로
항소
##트릭
국민적
홍영
##reen
우세
해야합니다
탈세
이화
곳곳에서
##았으며
##신공항
##프로젝
##리포니아
알려주
불안한
빈곤
작품의
쪽바
##진화
죄책
##법안
경우를
증가로
속출
##파에
국세청
속지
##셔도
안가고
##센터는
맞았다
드러내
이쁜
조사에
대인
##말이다
저들이
듭니다
미소
##웨이트
현상을
티켓
모의
범위를
니네들
문통은
변질
##재와
당한다
묻자
느그들
한미일
Cr
생각했다
누구의
청원합니다
정계
##2차
##할수록
##조사는
위험을
현수
부드
간단히
##내요
꼬봉
훈훈
되잖아
##거에요
사우디아라비아
결국엔
사람들과
##인지를
단절
##사들은
맞는다
뽑아야
돼지로
임상
맺은
아니었
사리사
오지랖
굴복
문준용
##토막
올라오
부메
##명령
UEFA
안하나
유병
근거를
그후
##뭐냐
분해
강세
민선
대행
##표는
##질만
100명
있느냐
맡게
##티를
분배
우리민족
이리저리
있어서는
안팔
##다니며
operat
성장이
줄어들고
##것이지
도청
스타트
5번
말해서
필요성을
납니다
노리
시장경제
끝을
국민투표
##하기만
아이의
##슬림
해보자
음식료
바랄
높아졌다
##직도
소총
##형태
##ade
##인민공화국
##는거는
표지
건교부
경제학
##그랬
몰아가
인식을
드럼
용돈
짤라
면세
회색
##사들의
안막
##계획에
결정이
##기간을
가다
씌우
중장
##자문
##지급
##탈출
사상이
담보로
##맞게
##된게
검찰에서
##기게
##상담
##취를
입지를
MVP
약자
##현동
나라경제
##했어야지
콘크리트의
쿠로
적폐로
호구로
##플랜트
Eng
않은데
김호
차에
거짓말로
##이동
##EW
GP
안죽
발표하고
학생들을
문죄인은
부럽다
불태
대책도
완장
사람이냐
##마켓
##의원은
##생의
사용된
걸친
부의
속의
대상은
##량과
기만
춤을
궤변
##가에서
대사가
##점과
올해도
주당
지들도
연평균
##말아
달라지
쓰는데
##람회
##블리
단편
상한제
123
생각했는데
##란의
##츠키
규정을
루이
제1차
##out
##탄이
살리고
현대모비스
업체들이
##이미
##안하냐
아베한테
플러스
투자하는
감리
운명
##창이
대구시장
파렴치
꼽히는
귀한
형이
교육감
1999
저감
원주민
크리스마스
##공동체
인디
##일드
2개의
마도
관대
아크
석사
OC
발생하지
없어야
산업통상자원
주진
움직임이
스프링
##체계를
##프라이
##경찰서
##때문이다
일본보다
size
더불어민주
호들갑
존재를
임대아파트
감옥에서
주변에서
나에게
언덕
##본부는
지럴
ph
왜들
##왔습니다
이중성
3시
##ower
목표는
##티가
사고는
양키
##국이다
스태
않네
유관
##창을
소원
심재
총동원
사직
욕하면
싶어도
난리를
어리석
국무총
예상보다
시키면
왕의
집중적으로
공수
감안해
##표준
개박살
많은지
##노는
대변인이
##조와
##발광
##차이즈
##삼성
삥뜯
##해주지
북한이랑
자멸
##터로
추가적인
머가리
##례로
공립
TF
바뀐다
사운드
없나요
##학습
구간을
가르치
출구
레미콘
동향
본능
않았다고
제안했다
존경하는
면이
부작용
##될지
신나게
line
쉬워
요인이
와이프
늦어
##조치를
다각
대미지
속을
유시민은
미우새
방면
요소가
지지율은
시절의
출신이
좋습니다
한지
플레이를
경의
부끄럽지
##이라곤
##대로라면
랭킹
인접한
사과는
##지정
자유한국당은
공존
##인치
##불을
직면
##기에서
보여줬다
2020년까지
시즌2
##전대
##탈을
아래에
오마
##자금을
삶은소
본보
확정된
##촉새
스티븐
ed
부진한
개소리야
##ild
리메이크
종교가
반대한다
중요한게
만하다
해주면
어마어마한
개인과
##거같은데
제철
스스로를
의심스럽다
세미나
외국인의
##무사
##무서
정성
경협
frac
##리뷰
진보가
문명
##준호
원이
토요
종자
##좀비
##우와
##저가
##ctv
방식이다
##환경을
공무원은
봉사활동
인권이
눈과
정숙
얻게
겪는
음악을
올랐고
백날
##힘들
제갈
이뤄지지
북한만
불필요한
져야
기공
종교의
##열에
반일선동
증시가
입는
구도
우정
일용
질의
리서치
답했다
퀄리티
얼굴도
문화가
느끼게
##어에
삼권분립
알고나
명확한
3단계
해준다
특급
보도를
성과가
붙어서
인간말종
올라간다
##금과
왕창
##마로
얼어
우유
동남권
김현미
게임에
사업과
문대통령님
벌고
객관적으로
굶어죽
지켰
##요구
자행
스타크래프트
감독은
gr
진지하게
설명이
##비용을
일이나
흔한
배터
##파리
안그러
나쁘다
상류
결정적인
조국아
##추가
갔는데
시너
허경영
##줄은
값이
해지
랭크
인력을
탄핵을
법제
임산
몽땅
##은혜
아버지를
평가는
겪은
##공인
운항
일고
저것도
설계를
챔피언스
##프로가
안재현
##하고있
민주당에서
구간이
건전한
##ina
비열
넘었다
어이없네
##선물
공헌
직결
가칭
##나나
박유
설립한
전대
##내셔널
베를
남자를
무사히
태블릿
절약
EP
기준은
캘리포니아
모르는데
서로를
##화도
##OL
조선은
mbc
제작한
안락사
롯데건설
are
용인시
##연예
빨갱이는
안하는데
무너진
논의가
주유
추잡한
주택시장
펼치고
포천
##해달라
##6억원
할것이다
3명이
노태우
셀프
그런건
최강의
무력화
3호선
##아무
부속
##경기가
공개한
##국민들이
보는게
##대상이
##제발
##아빠
사람에
해볼
##과장
올라서
##💙💙💙💙
합의했다
법원이
이번주
줄이기
##역할
16개
##ta
풍년
##시대의
없어진
청문
손꼽
1부
줄도
폭이
분양권
관제
##부르
되는거지
##신분
##많네
교회는
박통
대사를
##미친
마련한
고마해라
스텔
쓰면서
20억
댓글달
##새끼들은
##정보를
선관위
실태
##are
만드네
코로나바이러스
내부에
##기위해
거둬
DM
12년
##저것
놈의
것이냐
대표를
##같은거
거짓과
##하시오
##자빠
##시계
빛의
일한
정주
열린우리당
면담
낙후
##orname
operatorname
##촉진
##일수도
좋아하고
어머
##블로
발탁
##당께
미군이
아껴
아니랄까봐
선보인다
기대가
했었다
모멘텀
북돼지
환율은
사람입니다
했어요
##실점
성공적인
내진
댓글다는
##모드
##전망
올해부터
##츠가
장외
##할수있
사태로
##vs
의대
모집에
놀아나는
##자꾸
있음에도
해결될
것이기
뉴질랜드
기록해
벗겨
##속도가
##말든
세상의
##pr
대통령이란
찌그러져
모셔
당기순이익
뭡니까
않은가
##m의
쌓여
##바야
1973년
##가시
##조사가
똥줄
##할수도
##많아
문제인이
눈치를
품목
##바꿈
개수작
포스터
전까지는
이해하고
덴마크
짜리
##ement
##보고서
선호하는
당선된
##의사
중국이나
풀고
역사적으로
국회의원은
실수를
손이
감방에
##무장
코스피지수는
내놔
고지
셀트리온
##에다가
수주했다
메타
사케
보러
##상황에
준비가
두고보자
##단지는
아프다
##소환
무소불
개돼지가
자립
국민은행
전쟁나면
기점으로
##이잖아
이장
김남
책임지는
태그
us
잡힌
무리하게
염두에
도를
제휴
대대적인
##yst
특히나
대표의
혈세로
수단으로
치안
물어보
싸구려
미중
편리한
##박고
군은
메세
수납
10조
영상이
입주를
앞선
정으니
##뜨고
반면에
나팔수
교차
##👏👏
조속히
사업시행
왕자
정도였다
##내어
정령
급감
희한
듣보잡
##민들이
##야의
##확대
감기
공시지가
때문으로
넘을
경쟁력이
##쓰네
있듯이
##합병
##urn
##망정
팬들의
그전에
##5일
증말
투자할
1978년
남성이
프로듀서
일본산
Love
부평
##이유가
아비
설레발
종부세
이인간
##안으로
산재
CM
##모음
나옵니다
재편
신봉
##수리
부르짖
모른척
사람들만
가지게
##스에게
댓가를
박종
박물관
애널리스트는
##사고가
벌어지는
힘드
고인
##아니야
##정권을
누리고
##속한
변호사가
니콜
##항의
유승준
먹여살
비율을
이어진다
##300
3개의
남자와
##모아
발목을
##과에
##57
##일반
##위키
벤치
##쓰기
##해지면
##해보세요
동원해
##츠의
전두환이
맞벌이
##투자는
3주
자격을
이곳은
미얀마
##내역
158
홍준표가
있는듯
국가원
없었는데
추첨
불렀다
NODE
멋지다
지냈다
##추는
##연합회
118
열매
##입국금지
고종
말안
모양새
알고보니
못사
##적이며
서로의
웬만한
##다녔
수치가
공급되는
노무현이
죽이기
바지
복사
토막
##차이
대형마트
##사거리
농락
일식
뇌피셜
배임
인천국제공항
##즈와
쏟아져
한국사람
주부
머냐
상태이다
신속하게
위임
##입은
노가다
패치로
##ps
증액
자유로운
##들임
##러지
들어라
##대요
소득주도성장
그토록
신영
지냈
##되니까
##114
무분별
부모도
뽑아준
주권
##태섭
운영에
벗어나지
양주
응용
요청을
##ata
##당장
사탕
어렵지
때와
##런지
국토해양부
##였구나
기적
모델로
시작됐다
눈빛
자전거를
##실업
간첩이
대구시
흡혈
공평하게
밝히는
종합평가
판단하고
군인이
행위는
##읍시다
있는거다
충당
어버
좌빨들의
유예
##다니면서
맥락
지민
시작하면
안주
##코와
##새끼는
못들어
사이비종교
모자이크
실체를
짓거리를
둘러싸
G20
세번째
알지도
1억원
과다
##PM
해도해도
뚫고
##구청장
대여
묻은
붕어
외의
대면
지도자가
##정리
관계는
교과서
조국사태
##셔야죠
자체적으로
##아닙
욕심이
직선
저들은
##했죠
저것
멋지
내몰
##증으로
친인척
##정책이
OST
여유가
##인격
##도시설
타도
사회공헌
돈과
해온
1998
조율
됐는데
안다고
발병
풍력
일인데
##해선
위례신도시
범인
년이
입금
##시스트
아따
##말라
독립운동가
##2천
해외에
고층
죽었
##같지
죄값
금액을
사라지는
프랜
삼국지
인허가
ES
##홍보
전전
갔다가
오렌
반기
##임명
보고서를
##정도면
##2가구
얘기하는
##성능
클래식
전체에
장려
바미
해외건설
우리한테
out
국민여러분
밥을
##종으로
확대할
부리는
드러나는
위대
뻔하다
미래에셋
##업체에
##번이
##61
개선될
의혹에
##커를
1주일
##회사의
##물량이
##피가
말좀
창궐
15개
주자
##진구
사망자가
점포
##짓고
골빈
트윈
쓰라고
##몬드
산은
너네는
레어
세르
##ari
##위원회에
##가보네
이겼
죽창들고
한심하고
##아픈
보살
159
소닉
프로필
이별
##말씀
추정되는
소극
##했니
체결한
씨의
중남
##을때는
징그
사용을
부인이
품고
무의
계획이라고
##지도록
##대니
세븐
당하지
##셨어요
고액
할까요
##없을
맑은
원으로
안했다
있구만
##색의
자격도
쓰던
충분하다
허수아
한국건설
##이겠지
자식들은
정의와
이식
극장
불사
간판
낡은
작중에서
##일과
몰수
활동이
##해하는
아머
아지
##처는
직격
파급
##EF
##박사
##번을
고스톱
##인식
경남도
원전을
##안고
지껄이는
숭배
자한
전문가들이
안경
양승태
##화수
신정
CB
##OT
행태를
##편한세상
##출마
13개
##이전
정신차리지
애써
작가의
당해도
정의당은
##운운
##어머니
##수없는
공기청정
##하지마세요
##미니
##먹어
##는다면
성격을
폭도
비대
155
비율은
##이들은
##1위
드라이브
달래
##꼬라
평형
##공사에
청사
컴백
##종자
가계부채
##귀를
교육이
신혼부부
허무
기업도시
안되서
##ier
##됐을
피해자의
##역시
##ㅡㅡㅡ
12시
지원에
보여줘야
규정에
##여부
마법을
뚜렷한
나오니
증인
싶다고
이인영
##석으로
의료정밀
협약을
##나왔
책임지
공장에서
##팀장은
2명이
my
범죄자를
토론을
##시각
쿠데타
밑으로
낮게
내서
대선후보
국민성
서방
택지지
골목식당
협정
여자의
일정한
국회는
이기고
다니냐
##선도
##랑께
##위원회에서
##줄께
행사에
##새퀴
미성년자
강화하는
해본
4월에
돌아가고
##oss
지시를
지반
##찮은
살다살다
알기
남용
##데가
Univers
중세
예정입니다
꼬박꼬박
##하고싶
승점
나중에는
##크랩
##올리고
던진
조사는
무적
많기
차별화된
댓글도
재판부는
우월
메시지를
소리냐
시카
##부탁
이것저것
초기에는
누구에게
비스
올려라
볼때
여친
들으면
고맙습니다
훈장
분명한
돼서
주축
##계좌
역설
시즌을
##화재
크리티
동경
재혼
##그마
가방
##거리로
##호텔에서
카트
매직
경험하지
보훈
##초가
##품이
5위
여부에
혼란을
굶어
하였고
##밤TV
5층
##체류
계란
할말은
내년에는
법인세
안겨
날카
떨어져서
정국
##국가에서
빠뜨
##노의
##십리
강등
차명진
언론도
분석을
##버드
경원
매출을
팔레스타
go
퍼줄
일시적으로
캐릭터로
회의에서
이런저런
##시설은
##기간은
네이버에
퍼스트
행보를
계층
##바란다
무신
##난이
중증
동탄2신도시
##가입
##지부
않았으면
심정
스트리트
김유
피하기
해리
##ms
##잡기
방식은
데에
마련할
##수요가
대부분을
게재
말했습니다
분명하다
30여
Ed
보충
취미
예금
적용할
한계를
##여당
코르
이나라에
흉내
공무원들이
교활이
시뮬
장기간
샌드
짱깨들
방학
국외
터지면
##바위
이용하면
청화
대화가
사퇴하라
특징이
결과다
하노이
의류
##항목
고려할
죽었는데
달창들은
여섯
출력
서민들이
##연습
대신에
디아
해서는
##것같은데
##73
##쩌고
놓여
차는
##사업과
개최했다
##대며
xx
우대
124
볼트
##물과
공급된다
국부
##개에
##지난
기자간담
원시
남겼다
비금속
주워
##나라냐
확인해
검찰개혁은
이나라의
신천지에
World
보낸다
##악의
미카
##해제
##음으로
##이탈
민사
##슬라
건설기계
pl
콜라보
자초
파키스탄
Ro
##원숭
쓰레기야
##상환
축복
3세
들었
기차
시집
##생들
영화가
바꿔서
심지어는
나라다운
프란
수지
##해체
이북
깨끗하게
##전투
가관이다
내로남불의
미국한테
인정한다
##2억원
최고경영
저평가
##병은
일본차
##수있게
답없다
OOO야
##말의
의원들이
호전
당첨자
무혐의
##인거야
측에서
김광
활동에
##날을
무너지고
##구조를
날리고
광고를
##으냐
9호선
##리만
투어
망명
벌벌
이놈은
백년
없으나
##아버지
##IST
출신인
내라
자유한국당이
쌍욕
##하기에는
##기업으로
활발한
요인
증상
작용할
설명하고
많냐
오카
주댕이
##플래
##부랭
치명적인
덤으로
##애를
##저자
브레이크
김세
총선은
전쟁의
하늘에서
사명
끝은
형태를
벌어지고
받았다고
왔다갔다
부문에서
개망신
꾸며
##겄다
수사하고
신기술
막걸
본작
##물도
자한당을
윤총장님
모모
인권은
세웠
추악
제10
커맨
정권과
알겠지
##번방
##되므로
##려야한다
성남시
사용했다
말이죠
전복
지구의
부엉이
나눈
버젓
땅이
##지기도
국방장관
놔두고
연체
전셋
송전탑
나이를
구조가
사임
그나저나
꼬투리
똥싸
떨어졌
##30분
으이구
4인
송중
새마을
아즈
뻘짓
관악
나오나
명예회
경찰을
##정책에
OOO들이
현실적인
디자이너
현장조사
##사원
한국전쟁
쉬는
씹어
잘돌아
##네스
3가지
우두
안해서
보고싶
##꺼냐
니나
모이는
연예인들
그밥
의원직
순차
##값도
규명
차원이
들어선
캄보디아
소름돋
않다는
클레
##둘이
수익률
찬양하는
GR
후속작
##대서
##출동
##머리를
바래
끼어
##산과
있었는지
차량의
승무원
덩어리
상인
한탄
##폴리스
기원합니다
##oT
경향신문
민영화
남미
활동하고
시절부터
##시키려고
줄어드는
1을
날아가
##발전에
10배
##께서는
재판을
무시한
모두의
일해서
작품이
후유
활용하는
##주사파
놈아
정교
니들끼리
원에
헬기
쓰네
상품을
##ㅇㅇ
하는것도
법안을
기자들이
공조
##피탈
귀환
##보합
백퍼
훔쳐
남북관계
외국에
통장
맞춰서
하는것이
강서구
버려라
신천지를
체력을
추종하는
청량
##매한
ㅅㅋ
병력을
##벗고
전재산
왜냐면
측에
남한테
삼성의
노예로
##일수
전경련
ㄱㅐ
남로당
##았음
저자
실질적
갖췄다
##기준을
##버리자
##수단
만났다
생산을
##공은
하나에
성질
이철
SD
통일부
산업은행
진출한
1세
Part
뿌린
빠졌다
선거는
단지를
싸운
접어
##킨다
되어있다
이색
터지고
##베스
뜻한다
후폭
인정한
그따
소니
핵폭탄
##코인
새정치
결정한
##만이라도
보내서
아세안
암호
결정하는
사고방
촛불로
싹쓸
수자원
길이다
##의원님
채취
직장인
##벌을
##렸다는
치를
##기사가
##고대
공수처는
##치나
2호
남자의
스트리
중흥
반짝
거기다가
##ict
앞에서는
개정안
어떨까
기술력을
알리고
넉넉
##도없고
과대
샤오
##미달
니시
##고와
휘발
##시나요
##학대
충실
모르쇠
검찰개혁이
건설사들의
드라
막아라
##검증
##다오
사업도
법령
일각에서는
수상한
걸렸다
##타리
개한민국
교섭
와라
불리하면
무례
##노트
##들이는
과거에는
9회
##만8
안철수가
##작가
혈액
일반인이
뭔가요
비주얼
언론들
진보는
빨간색
정서
언제는
사회생활
##할까봐
진정으로
비교가
않지
직업이
김창
##약이
##ash
##우로
##II
보이스
개발해
백만
들어오면
##아줌마
##나오고
3루
주역
do
상회
길에
옳다
조성을
찌질이
##던거
주면서
##부턴
노트북
##했었는데
가구가
##도아니고
실시하는
칭송
역풍
##YPE
못하
##광장
잔인한
교훈
나혼
ㅇㅈㄹ
##테르
개발과
##지원을
##오냐
Co
성인이
마왕
##시키며
불쌍타
##있어야
War
##00만원을
제20
하루가
2로
소집
있는데요
강아
성향이
모니터링
##소릴
투자자들의
괴롭히
강남에
##위안
시장에서는
에버
전당
##는지를
변해
수만
능가
알라
말부터
##점도
제재를
최민
푸하하
1주택
인류의
모르겠네요
500만
핵개발
논리를
##이노베이션
연평도
한명이
연예계
돌아오는
빼고는
테라
##계획이
소재로
빠지고
방금
대통령이라고
184
생겨서
ICT
벨기에
양해각서
##코를
##말만
지난해보다
사노
##브랜드
##기관에
너부터
목에
미쳤네
매춘
급하게
초상
##마와
부려
이냐
상황에서도
BGM
##총생산
##오는데
국민한테
옛날에
혹시나
##대중
방법도
연속으로
##amp
##이었으며
270
끝이다
##국장은
잘하세요
121
SK건설
##골프
빡대가리
여는
실정이다
1군
생명이
##적이라
##to
생김
##린다는
이룩
차릴
##국민을
##공신
##렸지만
LIG
##더라고요
1200
Res
100프로
메모
팀장은
##연도
생방송
규격
국민청
적자를
원활한
논의를
옮기
내용이다
대회에서
원화
팔을
##문화재
기호
서포
울릉
평화의
대사관
마곡
답은
330
드레스
##높은
파멸
선거철
여건이
모토
시즈
##8가구
6회
국민만
##이라는걸
영화는
루시
쪼다
효과도
유세
보류
참가한
아재
재회
슬프다
연기를
건교부는
##매출
##통계
되풀이
##줄게
군단
확보했다
##기사를
설치하는
시작했고
##체제를
##맨이
검단
카자흐스탄
바짝
받아도
##모독
용적률
트리플
넣을
청계천
상을
탈당
슬래
바다에
OLED
##프와
때만
배민
크리티컬
했겠지
분홍
피트
##미술
건설사의
##까는
제한이
금호아시아나
not
##민주화
먹어라
저것들이
재원
할머니가
##인터넷
다르냐
##AME
도태
둔갑
반칙
오프라인
빨대
입구
민감한
싶어요
Fig
탄도
열악한
각자의
인원이
##글라
##린데
##드래
기술과
금태섭
원하지
##더가
할일이
수석대변인
##침해
기숙사
선사
조아
북송
사랑합니다
허브
윈도우
우릴
응원하고
##목숨
주장에
김종인
폄하
운이
쓰리
##매김
서울대학교
환경에
치워
받는데
##시키려
될거
말하는데
##산동
자민당
짝사랑
##했듯이
SE
질이
인간쓰레기
##단말
재래
브라운
하더만
망가뜨
소홀
대일
##반도체
##53
있을텐데
달창들아
##죄는
재건
실은
알겠냐
선점
빨갱이들은
아랍에미
##소니
그랬다
##미수
근린
##문에서
##1000
너무하네
명성
빅뱅
시민들은
##용역
악수
##쳤고
##박물관
##하기까지
실시간으로
un
##수술
유치를
결혼식
유체
원산
비겁한
DVD
협상이
캠핑
변수
즈그
반공
##디는
##ai
##과세
Sch
자체도
초토화
##라는거
가격도
##클래
하반기에
##심리
1997
##시설의
타격이
##고루
##동포
여당은
##혁신도시
감자
이룰
지지자들이
접대
##화물
당연하다
##측에서
캠페인
EN
실상은
홍성
집주
##츠와
##많고
고추
최고다
주는게
키가
미처
##량도
분신
외제
편지
지식인
증가에
거래일
양파
빠지는
##국대
태클
개발하고
20개
Te
아테
##터진
먹어야
무자
##슨은
우짜
쫒아
달성했다
해변
##집안
리듬
점거
##청과
깨고
##구역을
인간이다
이루는
전세계에서
반영한
##놨네
사실로
우선협상대상
##분으로
단점이
일어났다
특혜를
주둥이로
능력치
될텐데
수순
숙련
입국을
K리그
그곳에서
띄워
주장한다
4시
절반이
https
약속했다
##부상
##치는거
예견
잘한거
ED
근원
접어들
우기는
많구나
바라보고
##지역이
당국
결사
이거지
##바의
코로나는
##량으로
최첨단
치루
2030년
군주
##지시
놀아나
돌아왔다
잠수함
비위
힘들다고
650
아갈
삼청교육
현대그룹
러시아가
전적으로
기금
요구한
근무하는
대안이
영어로
단정
##기업을
가리고
##테일
큰일이다
##시간은
위기가
저를
탈바꿈
사태에
##소시효
정도에
##것과
노비
같다는
삼성엔지니어링
집값을
과정은
##드는데
##박을
고생이
극치
명은
알권
급격한
##4가구
##린은
건설은
부문의
##마리가
총선이
소금
빠질
워터
보이면
구름
자료에
##구조가
도둑놈
변환
선봉
인쇄
알겠는데
허술
간담회
##OW
주택담보
비상식
260
의문을
강용석
신은
##국토
성적이
필터
외압
가맹
강화해
##초를
예정이라고
쿨타임
##틀랜드
언론플레이
까라
무너져
되겠냐
반중
이동할
예전에는
해보고
##시켜야한다
중요한건
##했기에
분식
범위가
괜찮고
##심과
##지구에서
노려
우위
기본으로
부산대
아래의
무릎꿇
##듯하다
송혜교
이산화
신고를
##테크노
##유치원
욕은
경선
젊은이들이
##봐야지
이상해
욕나온다
##기사는
접목
##론하고
상반기에
##제대로
미쓰
##들로부터
##봤으면
게임에서
벼슬
##플레이션
본편
다이어트
1974년
영웅이
뉴스는
안속
혐의가
##한데다
##현은
노원
통영
줘서
개혁은
살만
하는걸
이벤트를
증거도
모습도
건설산업
##상황이
엄격한
과열
아니기
잉여
충청남도
메르스때
다르고
이성을
뽑았
전장
보여줬
죽어가
##현석
국민의당
의거
##가족이
그들만의
첨부터
부끄럽지도
같은데요
##역까지
안정적
삽질
##바른
조져
사설
줄서서
업황
서울로
자리매김
사교육
##체적
SI
졸개
고부
기사만
박근혜를
그림자
##예방
인텔
##비용이
##분쟁
##을까봐
폭염
검찰조사
좌지
가냐
##3000
##만7
분탕
세인트
8회
못받고
1개월
포격
##스톱
학과
스노
불신
제치고
전라도가
때리
750
나들
원격
스톤
필요해
DLC
노력하는
##불안
##한건데
수주를
##대다
5만원
##타도
PLATE
전매제한
##겨라
종합적으로
기가찬다
##사스
정년
한성
##쿠라
전쟁에
전통적인
##관리에
##회사를
아마존
못한다고
아르헨티나
##싫은
공정하고
시작되었다
127
현대건설이
깨끗한척
높지
프렌
갖는다
##르를
순진한
체코
눈앞에
##만4
##퍼가
기회로
누구든
경희
물어야
가상화폐
KDI
결단
어필
##해야하는데
민족주의
있는거야
##ject
달에
학생들에게
여가부
##유통
##형과
##ll
##인원
캡틴
귀여운
필살
생각됩니다
시내버스
속한다
##나기
탄력
문제임
거들
태안
##ann
##팅을
아스팔
DS
JR
과징
너네들
좆선
기술의
이들에게
남경
올라간
##위조
##개표
유촉새
특징은
사진제공
소리나
경제보복
수십억
깨시민
##지않다
모시고
##한줄
##하는것은
퍼부
믿냐
행복주택
1965년
드문
목사가
권리가
##우선
저축은행
##협약을
못합니다
4분
김주
당근
못보
일본하고
##매수
만도
안되네
플레이오프
음주운
##기업인
쓰는게
##가동
178
붙었다
찾았다
떠났다
##조장
할줄아
성관계
##구장창
유적
양정
저사람
규정하고
지팡
지장이
근본적으로
쉬고
못쓰
새벽에
자격증
공소시효
조성하는
막판
가축
다하는
트라이
##93
반으로
미국이나
사이드
성장할
면적은
수준하고는
인상이
달리고
미필
방문객
SC이슈
보여주며
논란에
수당
철새
##가격은
6자
버림
##글로벌
각하
WW
##장구
sec
ㅆㄹㄱ
팩트체크
##메가
언급했다
의미는
막가
##란한
선언했다
프레시안
우량
##ual
이어갔다
##르면서
깔려
##티스
감이
117
볼모로
아웅
제작된
구체적
사카
좋아하네
성숙
하잖아
없었을
있었다면
토로
열을
cctv
공청
대응할
찾아야
무책임한
일체
달라질
##팔고
압력을
일삼는
수입이
이런일
서귀
##편향
##말대로
리스
발매된
##했네요
##BM
애들을
즉위
맞아야
발언이
##버릇
##여부를
##계와
##없지만
살어
빠르고
천하의
연다
상한가
청와대의
음료
알아보고
주는데
걸리고
될것
판단했다
밝힐
##백이
##51
정재
한경
스페이스
수출입
##사정
풍력발전
포함돼
킹크랩
일어난다
##손실
##하시죠
언급이
전가
구성돼
때를
수사해라
##ream
안한다고
##세월
창피하다
효과로
간만에
내륙
인해서
공격적인
도와줄
언제든
##ox
월급은
받았는데
MAX
##라인을
재산이
판정을
때리는
##릴라
##ount
번에
##주거
무궁
잠복
종업
표가
그랑
섬나라
임금을
다툼
미네
분야를
무식하고
##91
의원들은
##방울
시간도
비비
##넘들은
감사를
##치던
##나는데
##걸려
검찰수사
1975년
##어버리는
생산할
날조
지우
##하겠나
서민을
공표
죽자
##법이다
1박
효율적으로
매월
요원
##대나
##하락
##론에
싸움이
##공립
##보전
##신천지
외치며
##율도
학교는
활동하는
더는
쏘아
##해군
제품이
쥐새끼
건강을
절라
여성들이
소가
가면서
영향력
설문조사
모가
거부하고
손상이
어떤지
주둥아
##만6
수류
실사
투자는
##일기
웹사이트
치부
아르바이트
의무화
오름세를
돌아섰다
높아진
##준거
친미
##후가
검새
나와라
하중
AD
Is
안중
조사해야
좋아하지
ID
중심에
내부에서
위협을
생각없는
##구성
판문
##자이다
##ution
길고
##음식
##자들만
발표할
몸통
##현진
가릴
살인을
세컨
속에서도
##구마
##생태
말그대로
인프라를
black
1972년
자란
니들의
151
외환위기
계열사인
현실화
현재도
반응은
관중
프리큐
왕조
##그리고
개독교
벗어난
개명
조문
##서니
의전원
##캠퍼스
##있어도
캐논
##폴리오
##주며
##손손
##겠다는데
확인한
진중권이
외교는
##가야지
언제든지
##쳐먹는
##키트
그랬냐
구조로
공과
알겠네
##거릴
김선
전송
##집으로
##tle
동의를
웨스트
참수
##리에서
##당하지
토사
바람직하다
고마운
최장
몰라요
말인데
잔치
183
##하는데도
주어진
지난번
##센터가
모르겠고
엔지니어링
김의겸
이르기
협조를
##등장
싶다면
처리할
126
정정
맘이
##확보
부분도
LG전
고용노동
##디스플레이
해결해
사라지
불투명
어벤
도래
니네는
4개의
출연한
4배
1977년
가네
업체에
뛰어나다
##민과
급급
선수로
못해도
누르고
레벨이
##iet
##끄러
##대네
이뤄지고
경쟁률
디스크
군사적
##되겠네
다니며
변호사는
엔터테인먼트
##무늬
언론인
1996
##사우
##하시네요
표절
##설에
듣는다
무너지는
##이건
당나라
위험하다
##메리카
비꼬
확보해
연사
##하지않고
느껴진다
확실하다
의식을
##나네요
좋은거
막혀
먹었다
##자너
2년만에
정하는
꿈에
개발하는
된장인지
묻어
##시기를
##쟁이들
일본놈들
적와대
즐기고
고치
주구장창
##과제
대우건설이
강재
전년대비
제품의
버블
한국형
##했음에도
##회원
##ily
전망을
해양수산
열폭
지면
수년
##과정을
잦은
자한당에
##계속
화산
음식점
수록곡
좋네
80년
경제활동
서울시민
주말에
모양의
##머리가
기다려라
대세
성소수
뭐해
##는것도
잃었다
빅토
토벌
##제목
##바르
명목
망하면
인내
빼박
인간이냐
노란색
##새기들
1976년
7대
괴뢰
카풀
##비판
강경화
##정부에
중요하지만
다까
##있다면
가끔씩
졸업생
부추기는
감상
##우에
##깁니다
진도
생겼는데
빈부
경기부양
낮고
빛나는
##기보다
대입
방화
하여금
Korea
##적이었다
상당의
글쓴
##오던
목동
설비투자
신한지
14개
되기를
로맨스
독립을
연구원
상상도
##아트
주접
소굴
한국남
##라미
열릴
##어울
어색
지금이나
무기고
특수한
다중
눈가리고
인수를
작고
##아와
이리도
오게
자르고
치자
오페
가는구나
투표로
필살기
6호기
자기를
##대냐
급한
악몽
##슨이
군인들
KC
##콘크리트
SK이노베이션
##패로
On
금전
적립
##지법
##적용
##할까요
뿐인데
언더
의미하는
스탈
제기한
하마
##런트
##시키려는
복선전철
모노
의원을
미미
지방은
##광이
문씨가
조국같은
않았다는
오기
비교를
##ica
##린게
구축을
개만도
서귀포
지긋지긋하다
##연방
해군기지
극좌
뒤져라
##급은
거라는
임용
주디
서슴
비굴
경찰관
박근혜대통령
맡기
영구적으로
아니니까
시상식
공시가
날리는
속상
혼인
예비타당성
##나가서
결집
백배
얼만
결정한다
사이코패스
##복구
##ㅉㅉㅉ
##ourn
##등은
167
4000
##버리지
대구가
초보
공격할
100여
되었으면
진천
##지켜
취급하는
안민석
##하고있는
골고루
나왔던
해결책
동력
제품은
저런것들이
공단
##힘을
##5000
##버리네
낙관
용지
한반도의
독려
입주가
해야함
넘긴
##4억원
토해
강해
##데도
미통당이
일자리는
쉽고
너무도
됩니까
답게
맞는지
한마리
헌터
##빌리티
##가보다
어이구
255
인터넷에
1950년
스톰
좌지우지
대단지
##비디오
말살
익스
##비시
스스로가
프로젝트는
팔이
Car
##빨아
##igh
##누구
하고있네
우리보다
제목이
부산에서
##혀라
##틀어
속해
도무지
##리조트
##만세
하태경
화제가
자기편
##리노
영화의
##왔다고
생생
부모님이
일보
##사법
성북
능력으로
명분이
##급식
환불
##치않
##했구만
시절에는
정치인은
조양
나뉜
지지자들은
요인으로
국가보안
거짓선동
영혼을
월급을
피난
e편한세상
##경화
가격으로
카타르
들린다
상승하고
사형시켜라
이전부터
실세
죄값을
잡아라
##채용
##속까지
말야
1971년
기쁘
디자인을
##해운
어쩐지
전기가스
멜로
꺼지
맞죠
116
김혜
로얄
경제자유구역
##시픽
국유
인연
창문
김두
7회
크기가
이런것
##af
명칭은
Go
##글이
##오네
진흥
구성됐다
넘어가면
김부
사악
원룸
##힘든
없이는
예산은
강대
대역
##공에
브랜드를
##그림
##무식
대우를
행동하는
##김에
변함
해야하는
지랄도
단독으로
조기에
일단은
##이신
김정은은
##reat
이메
##찬성
토지를
스쿨존
단결
외국으로
나이는
경산
##질않
닌텐
##고리
##십쇼
남편은
##참시
##뤘다
떼어
205
청년들
안들면
넘버
조국에
강호
피격
삼성을
##Hz
애매한
초에
##투사
스킬이
쿠웨이트
##링크
정형
잠을
의구
수행하는
힘내라
이러면서
불평등
온몸
외쳐
나랑
피에
주둥이만
낙인
탁월한
##원장
##맥스
미쳤구나
판매하는
##시설도
쓰세요
##벌어
업체의
터무니
국감
내돈
찍어서
3시간
똑같아
넥센
1995
##학이
##균형발전
바에
##으면서도
일으키고
감탄
시노
사실이면
꼼짝
원안
기가차
득표율
##시키는데
오토바이
쉬쉬
시급한
필요없고
##왜곡
가죽
잘못한거
모스크바
동창
배신자
살았다
##경협
한통속
표출
##번은
요구에
종교를
280
평이
놈이다
##지점
아이언
강변
휴전
항구
문제입니다
한채
##플라
닭대가리
힐링
##아닌데
휩싸
##가봐
익산
##명단
협동
속국
저인간
이정부는
왜그러
앞장서서
결정에
조직의
에구
난방
##거잖아
수산
포위
이뤄진다
거잖아
감염된
손해보
##나카
##안함
경우엔
IoT
인조
뭐만
게시판
개꿀
밟고
보이기
지위
뇌에
상사
##개소리
Sk
##ㄱㅋ
자주국방
테마파크
##명이나
SK하이닉스
있는거냐
장례식
가정을
클러스터
##순환도로
칠레
중국어
땅값
서대문
기본이
죽음으로
강사
이송
##보라고
한번이라도
수준에서
##차원
정쟁
뛰고
##겟냐
우발
총선을
##자한
##스티벌
##지출
##ystem
하겠지만
개천
북유럽
##뿐이
출간
후기
안타깝지만
구직
위상을
YTN
살인사건
단체가
정상이냐
구구
장관의
정관
##신경
있겠나
길은
라틴
고난
##정부를
그지같은
황당한
가진다
##희는
개념없는
아내의
삼성물산은
물갈이
부르며
##청을
영변
##만9
지났
기다리
사망했다
준비하는
##바닥에
수중
##iel
극도로
패키지
아랍에미리트
##분도
다물고
금액은
조국이가
122
외화
오렌지
##83
##했는데도
죄앙
일본놈
업종은
##놔서
차이로
##셨나요
페북
옳다고
자숙
##대접
소비자가
원인으로
수상했다
##국민은
최악이다
일방적인
방송사
##공법
팔자
버젓이
넘어간
박재
우울증
에이즈
입다물고
과시
문정부는
막은
##ern
##메라
자위대
##보낸
챙긴
신경쓰지
공식적인
촛불들고
##크리
신경써
상술
박혀
나가겠다
주적
이래저래
청약통
##브의
대검
유린
상승에
##마귀
##판단
개포
번의
관해
부르지
누르면
했기
실패했다
살피
##죄인
위치가
조언했다
데이비드
##세탁
흘려
##주는거
1969년
민망
발령
빈번
비로
사회적으로
##상공회의
폐지하고
짝짝
우리만
적용한
감독을
무기가
상해
사제
내에서도
헨리
수익성이
##마스터
전단
않았기
부족해
수주한
이거는
전라북도
등산
리포트
천박
##me
##주시길
후분양
아네
##cl
하길
##조각
받았던
60년
일진
##커의
어디가서
생각하는데
성접대
유유
수익이
마린
인재가
베어
##레저
좋았다
매각을
##작은
##미도
다니지
생각난다
선정했다
애초부터
환호
될거다
세일
방송이
놈들이다
##하려다
진해
연구위원은
이창
넘어선
##킵시다
##지구의
##하구만
##형제
행위가
##경쟁력
해쳐먹
환원
##정부와
##ors
안보는
속셈
건설하고
세계경제
홈런을
브레
발정
안보를
##업체들이
##카이도
목욕
##도못
주목할
붙잡고
사용하기
울산시장
페미니스트
수염
상영
##있어라
생리
인사가
한기총
디자인이
이명박이
다하겠다
1960년
##비율이
주십시오
치료비
커졌다
사건과
필요성이
중심이
공부하고
죽어가는
중국이랑
##구니가
르노
안가는
1주
전제로
시다
제왕
정권이다
##쇼를
입지가
사위
생활비
뻔뻔하고
성실히
가능하도록
##스러울
##류는
진전
##경기에
편의를
##안됨
##노미
##전력
월등
의상
현금으로
증거는
해를
올림
올스타
어따
안되는거
잘하는게
위협하는
양극화
##시킴
안정화
내림
우선적으로
##ocal
최정
쪽바리들
##햇다
국회의원을
증대
용감
하고있다
착륙
##하리
전략이
시진핑이
##곳도
주인공은
##지옥
##당하게
에르
자아
터지는
##층으로
망했다
자국의
##미국
##보려고
##봉쇄
망해도
모가지
에고
진행됐다
친일파가
음원
처한
돕고
##00만달러
발사체
##9억원
##자리가
연맹
외고
##계산
욕하지
진핑
##한다며
민주주의의
##3천
##노출
여성단체
##베리아
##츠는
##기관인
골을
##업의
건네
##태는
전승
읽을
자력
1000만원
국익에
지식경제
던지는
좋아질
##같으니
적법
부모를
지상파
논리는
기업가
확보에
흉악
##과열
##원가
마포구
무슬림
##하는거임
애낳
시간과
##내는데
증상이
달콤
볼만
작업에
힘써
##하에서
가져가
##수기
판단할
검찰도
남산
체인
상황인데
##게시
부동산을
반토막
사상을
자기의
문제점이
##세대가
##ife
##실장은
연결되는
성공한다
주변을
et
수원시
즐거운
그런걸
환경에서
대응이
##더니만
##TS
선거개입
누수
##VA
돌릴
조선민주주의
안하무
굳건
##갑시다
욕먹을
메이드
짝퉁
주특
유급
고스트
알릴
##놓을
외국계
마련을
판교신도시
설치한
승계
##논문
그때도
감정적으로
여성은
유지했다
177
서울을
안타깝습니다
던지고
기웃
야쿠
조별
민변
인정을
꼴깝
당내
##부대가
##만드는
##되네요
유저가
일으킬
##되지않
피땀
##면은
주인공의
##마사
수사해서
문산
장벽
문다
양양
주옥
대단해
논다
빙신
키즈
내로
무더
아쉽다
##물며
천년
손쉽게
혈압
##법무
국내총생산
학폭
##크스
끌었다
어땠
조작을
명칭을
반대합니다
남친
받는게
##56
포탑
##걸음
이정도로
##어떻
조정을
청약접
말던
##erv
꾸준한
대상에
조심해야
포상
##일뿐이다
맺었다
오거
##제도가
광주시
평화와
하부구조
넘지
너한테
##지말라고
미군철수
주춤
현장의
SKT
근절
시끄럽게
##어지는
다뤄
빛이
1일부터
##할수가
144
남들이
전쟁에서
마드리
시선을
##브가
과목
소대가리가
모았다
저들의
계획대로
더하면
##yy
움직일
오천
콤보
패턴이
주민의
세울
무늬
김윤
추운
챙길
##왔지만
15억
쪽팔린다
생각하며
힘들지
굴착
182
시키들
언제쯤
것임을
말았
양심은
모로
앞을
베를린
보좌관
와중에도
자질
당사자
##1억
서울중앙지검
##덜이
그만두고
##궐선거
##만족
##나갔
imf
##8억원
다다
##님들이
간이
지역별
##트에서
AA
if
보내면
떳떳하게
##화되어
동상
퇴사
설계도
##니버스
지역과
##ise
조직이
최종적으로
부상으로
으휴
통일이
##무도
여성가족
방법이다
##있다가
##분과
너무너무
요한
자원을
지루
##란걸
##야가
##😡😡
##hy
프로젝트에
##짓는
##한다는게
##들어라
효율이
애비가
괜찮다고
자네
마련하고
불안해
경사
##사회주의
쯔쯔
선에서
모델이
발효
하늘의
싸돌아
##살에
드러난다
지방에
피해자를
사회간접
기록했고
나가지
커넥
세월이
땅에서
폭스
황씨
어린애
시작되는
대를
딱봐도
##지는거
숨은
비추
확고
연예인이
명예를
##드려요
꼴랑
id
있는건지
먹어서
##설립
챔피언십
좋을듯
독서
모녀
##론가
상대는
잘들
자기도
1970년대
##베스트
막무가
대표와
찌질한
표창원
동맹국
네임
제9
##말아먹
##랜드는
잊고
라운드
장미
건물의
##꺼리
##201
##왕조
1급
달창들이
비싸다
##EM
세끼
것이니
멀다
##먹지
##토와
신속한
한번만
##슬링
양적
입니까
##생각은
구하는
끊이지
편협
외교적
뭐임
##와야
##부리
찍으면
##절차를
나갔다
층간
##번의
출소
지켜라
도움으로
이상하지
주장한
##홀딩스
할래
했어도
##전차
현대상
데다가
7조
쪽에서
강화할
##펙트
예민
유영
##립스
상관없는
역겨워
제공한
발발
그러던
얼굴은
경북도
전세계적으로
애쓰
함께하는
해줬
경기회복
실험을
더민주
이강
##혐오
##환경이
악랄한
북측
##그나
자유무역
사람들한테
개선에
전산
##외곽
트레이드
정보기술
가해자가
우리은행
확대하는
##세우
댓글러
따름
상도
##토착
##드에서
나라망신
여군
살고있
자금조달
맞나요
미용
뭔가를
뽑으면
##슨의
근황
##스틸
##축을
대포
##한듯
문베
##악질
빠져서
##정권에
##운송
드러냈다
밥맛
최근의
천연가스
##국회의원
줄기
##오면서
##불어
##단지에
작작해라
학사
##세력의
공개했다
고속철도
준표
같은거
명백히
##야지요
거짓말이
##먹으면
##만나
이전을
깔고
동계올림픽
##보병
정권교체
선택적
문제인데
##주의적
최전
개국
대학을
막론하고
안써
특화된
정세균
건들
##불러
족속들
경찰과
##5억원
호평
금액이
유물
졸업하고
제안한
##불쌍
1968년
##사망
들어가지
찾아가서
mathbb
##줄까
뿌리고
사랑해
놀랍다
종점
하고도
요정
##TC
동남아시아
만료
겹쳐
구청장은
말아야지
정당화
숨을
##안돼
하락하고
이라도
국정농
##라는건
건물에
장기적인
박아
초반에는
평을
남매
##매각
이끈
노골적으로
생각과
어플
작전을
정부나
통하지
망해라
캐리
테니
도시가
586
##예진
##시설로
##싶냐
헛소리를
수사하라
제목을
점유율
##ology
대학에
##통운
##찾아
50만원
않는가
그곳에
있었네
기구
##통의
##갑다
##시설에
끝내고
PV
문과
여타
없어지고
개체
막말로
없겠지
계획입니다
위함
천박한
나오며
##미리
##덩어
세우는
##지니까
싸질러
분위기다
##쳐먹은
##악을
카미
##파일
절벽
##역이다
##1의
##였는지
월북
쳐서
호조
많았고
##land
그깟
냉각
사령관
민심은
##버스터미널
탄산
##투자를
뛰는
이러니까
부족으로
GS건설이
이산
행정구역
##품으로
과격
주52
입양
##오늘
##들한테는
res
떠나는
##화장
장하성
사장을
벽을
송도국제도시
##비치
사육
부작용이
어딨냐
이랬
노친
때문이
있었지
김구
난간
도착한
가식
발레
업그레이
싸이코패스
바빠
사가
8개월
먹기
거리두기
OUT
정해져
하이브리
창당
순진
서해안
수동
뭉쳐
##너가
##마일
조연
Col
반문
청년들이
이중인격
유리하게
##무죄
일년
쟤네
똑똑히
돈많은
운영할
대응하는
장인
상반
느린
삼성중공업
자살한
폭력을
지휘관
앞으로의
정상회담을
##지들
줄어든다
물리적
날리
##1가구
떠날
무얼
성도
해찬
##니스탄
##잡아서
노멀
바글
참패
어우러
맹목
##uk
##9가구
아파트와
스마트시티
누군데
장래
전쟁은
##리언
##사는데
##경제자유구역
작품은
엔지니
천명
##기는게
공화당
차질이
지나고
##기들이
인간으로
승용차
먹어도
